{
  "Ā": 0,
  "ā": 1,
  "Ă": 2,
  "ă": 3,
  "Ą": 4,
  "ą": 5,
  "Ć": 6,
  "ć": 7,
  "Ĉ": 8,
  "ĉ": 9,
  "Ċ": 10,
  "ċ": 11,
  "Č": 12,
  "č": 13,
  "Ď": 14,
  "ď": 15,
  "Đ": 16,
  "đ": 17,
  "Ē": 18,
  "ē": 19,
  "Ĕ": 20,
  "ĕ": 21,
  "Ė": 22,
  "ė": 23,
  "Ę": 24,
  "ę": 25,
  "Ě": 26,
  "ě": 27,
  "Ĝ": 28,
  "ĝ": 29,
  "Ğ": 30,
  "ğ": 31,
  "Ġ": 32,
  "!": 33,
  "\"": 34,
  "#": 35,
  "$": 36,
  "%": 37,
  "&": 38,
  "'": 39,
  "(": 40,
  ")": 41,
  "*": 42,
  "+": 43,
  ",": 44,
  "-": 45,
  ".": 46,
  "/": 47,
  "0": 48,
  "1": 49,
  "2": 50,
  "3": 51,
  "4": 52,
  "5": 53,
  "6": 54,
  "7": 55,
  "8": 56,
  "9": 57,
  ":": 58,
  ";": 59,
  "<": 60,
  "=": 61,
  ">": 62,
  "?": 63,
  "@": 64,
  "A": 65,
  "B": 66,
  "C": 67,
  "D": 68,
  "E": 69,
  "F": 70,
  "G": 71,
  "H": 72,
  "I": 73,
  "J": 74,
  "K": 75,
  "L": 76,
  "M": 77,
  "N": 78,
  "O": 79,
  "P": 80,
  "Q": 81,
  "R": 82,
  "S": 83,
  "T": 84,
  "U": 85,
  "V": 86,
  "W": 87,
  "X": 88,
  "Y": 89,
  "Z": 90,
  "[": 91,
  "\\": 92,
  "]": 93,
  "^": 94,
  "_": 95,
  "`": 96,
  "a": 97,
  "b": 98,
  "c": 99,
  "d": 100,
  "e": 101,
  "f": 102,
  "g": 103,
  "h": 104,
  "i": 105,
  "j": 106,
  "k": 107,
  "l": 108,
  "m": 109,
  "n": 110,
  "o": 111,
  "p": 112,
  "q": 113,
  "r": 114,
  "s": 115,
  "t": 116,
  "u": 117,
  "v": 118,
  "w": 119,
  "x": 120,
  "y": 121,
  "z": 122,
  "{": 123,
  "|": 124,
  "}": 125,
  "~": 126,
  "ġ": 127,
  "Ģ": 128,
  "ģ": 129,
  "Ĥ": 130,
  "ĥ": 131,
  "Ħ": 132,
  "ħ": 133,
  "Ĩ": 134,
  "ĩ": 135,
  "Ī": 136,
  "ī": 137,
  "Ĭ": 138,
  "ĭ": 139,
  "Į": 140,
  "į": 141,
  "İ": 142,
  "ı": 143,
  "Ĳ": 144,
  "ĳ": 145,
  "Ĵ": 146,
  "ĵ": 147,
  "Ķ": 148,
  "ķ": 149,
  "ĸ": 150,
  "Ĺ": 151,
  "ĺ": 152,
  "Ļ": 153,
  "ļ": 154,
  "Ľ": 155,
  "ľ": 156,
  "Ŀ": 157,
  "ŀ": 158,
  "Ł": 159,
  "ł": 160,
  "¡": 161,
  "¢": 162,
  "£": 163,
  "¤": 164,
  "¥": 165,
  "¦": 166,
  "§": 167,
  "¨": 168,
  "©": 169,
  "ª": 170,
  "«": 171,
  "¬": 172,
  "Ń": 173,
  "®": 174,
  "¯": 175,
  "°": 176,
  "±": 177,
  "²": 178,
  "³": 179,
  "´": 180,
  "µ": 181,
  "¶": 182,
  "·": 183,
  "¸": 184,
  "¹": 185,
  "º": 186,
  "»": 187,
  "¼": 188,
  "½": 189,
  "¾": 190,
  "¿": 191,
  "À": 192,
  "Á": 193,
  "Â": 194,
  "Ã": 195,
  "Ä": 196,
  "Å": 197,
  "Æ": 198,
  "Ç": 199,
  "È": 200,
  "É": 201,
  "Ê": 202,
  "Ë": 203,
  "Ì": 204,
  "Í": 205,
  "Î": 206,
  "Ï": 207,
  "Ð": 208,
  "Ñ": 209,
  "Ò": 210,
  "Ó": 211,
  "Ô": 212,
  "Õ": 213,
  "Ö": 214,
  "×": 215,
  "Ø": 216,
  "Ù": 217,
  "Ú": 218,
  "Û": 219,
  "Ü": 220,
  "Ý": 221,
  "Þ": 222,
  "ß": 223,
  "à": 224,
  "á": 225,
  "â": 226,
  "ã": 227,
  "ä": 228,
  "å": 229,
  "æ": 230,
  "ç": 231,
  "è": 232,
  "é": 233,
  "ê": 234,
  "ë": 235,
  "ì": 236,
  "í": 237,
  "î": 238,
  "ï": 239,
  "ð": 240,
  "ñ": 241,
  "ò": 242,
  "ó": 243,
  "ô": 244,
  "õ": 245,
  "ö": 246,
  "÷": 247,
  "ø": 248,
  "ù": 249,
  "ú": 250,
  "û": 251,
  "ü": 252,
  "ý": 253,
  "þ": 254,
  "ÿ": 255,
  "Ċĉ": 256,
  "ĊĊ": 257,
  "ĊĠ": 258,
  "Ġĉ": 259,
  "ĠĊ": 260,
  "ĠĠ": 261,
  "Ġ!": 262,
  "Ġ\"": 263,
  "Ġ#": 264,
  "Ġ$": 265,
  "Ġ&": 266,
  "Ġ'": 267,
  "Ġ(": 268,
  "Ġ)": 269,
  "Ġ*": 270,
  "Ġ+": 271,
  "Ġ,": 272,
  "Ġ-": 273,
  "Ġ.": 274,
  "Ġ/": 275,
  "Ġ0": 276,
  "Ġ1": 277,
  "Ġ2": 278,
  "Ġ3": 279,
  "Ġ4": 280,
  "Ġ5": 281,
  "Ġ6": 282,
  "Ġ7": 283,
  "Ġ8": 284,
  "Ġ9": 285,
  "Ġ:": 286,
  "Ġ<": 287,
  "Ġ=": 288,
  "Ġ?": 289,
  "Ġ@": 290,
  "ĠA": 291,
  "ĠB": 292,
  "ĠC": 293,
  "ĠD": 294,
  "ĠE": 295,
  "ĠF": 296,
  "ĠG": 297,
  "ĠH": 298,
  "ĠI": 299,
  "ĠJ": 300,
  "ĠK": 301,
  "ĠL": 302,
  "ĠM": 303,
  "ĠN": 304,
  "ĠO": 305,
  "ĠP": 306,
  "ĠQ": 307,
  "ĠR": 308,
  "ĠS": 309,
  "ĠT": 310,
  "ĠU": 311,
  "ĠV": 312,
  "ĠW": 313,
  "ĠX": 314,
  "ĠY": 315,
  "ĠZ": 316,
  "Ġ[": 317,
  "Ġ`": 318,
  "Ġa": 319,
  "Ġb": 320,
  "Ġc": 321,
  "Ġd": 322,
  "Ġe": 323,
  "Ġf": 324,
  "Ġg": 325,
  "Ġh": 326,
  "Ġi": 327,
  "Ġj": 328,
  "Ġk": 329,
  "Ġl": 330,
  "Ġm": 331,
  "Ġn": 332,
  "Ġo": 333,
  "Ġp": 334,
  "Ġr": 335,
  "Ġs": 336,
  "Ġt": 337,
  "Ġu": 338,
  "Ġv": 339,
  "Ġw": 340,
  "Ġx": 341,
  "Ġy": 342,
  "Ġz": 343,
  "Ġ|": 344,
  "Ġ~": 345,
  "!!": 346,
  "!\"": 347,
  "!'": 348,
  "!)": 349,
  "!*": 350,
  "!,": 351,
  "!-": 352,
  "!.": 353,
  "!?": 354,
  "!`": 355,
  "\"!": 356,
  "\"\"": 357,
  "\"$": 358,
  "\"'": 359,
  "\"(": 360,
  "\")": 361,
  "\",": 362,
  "\".": 363,
  "\":": 364,
  "\"?": 365,
  "\"[": 366,
  "##": 367,
  "%,": 368,
  "%.": 369,
  "'!": 370,
  "'\"": 371,
  "''": 372,
  "',": 373,
  "'-": 374,
  "'.": 375,
  "':": 376,
  "';": 377,
  "'?": 378,
  "'\\": 379,
  "'d": 380,
  "'m": 381,
  "'s": 382,
  "'t": 383,
  ")!": 384,
  "),": 385,
  ").": 386,
  "):": 387,
  ")}": 388,
  "**": 389,
  "*,": 390,
  "*.": 391,
  "+!": 392,
  "+.": 393,
  ",!": 394,
  ",\"": 395,
  ",'": 396,
  ",,": 397,
  ",.": 398,
  ",:": 399,
  ",?": 400,
  ",`": 401,
  "-\"": 402,
  "--": 403,
  ".\"": 404,
  ".&": 405,
  ".'": 406,
  ".)": 407,
  ".*": 408,
  ".,": 409,
  "..": 410,
  ".?": 411,
  ".\\": 412,
  ".`": 413,
  ".{": 414,
  "/.": 415,
  "00": 416,
  "09": 417,
  "10": 418,
  "11": 419,
  "12": 420,
  "13": 421,
  "14": 422,
  "15": 423,
  "16": 424,
  "18": 425,
  "19": 426,
  "20": 427,
  "21": 428,
  "25": 429,
  "27": 430,
  "30": 431,
  "34": 432,
  "35": 433,
  "42": 434,
  "45": 435,
  "50": 436,
  "55": 437,
  "75": 438,
  "90": 439,
  "95": 440,
  "97": 441,
  "98": 442,
  "99": 443,
  ":\"": 444,
  ":)": 445,
  ";\"": 446,
  ";;": 447,
  "</": 448,
  "<|": 449,
  ">\"": 450,
  ">,": 451,
  ">.": 452,
  "?!": 453,
  "?\"": 454,
  "?'": 455,
  "?)": 456,
  "?,": 457,
  "?.": 458,
  "?:": 459,
  "??": 460,
  "?`": 461,
  "AH": 462,
  "AJ": 463,
  "AN": 464,
  "Aa": 465,
  "Ah": 466,
  "Al": 467,
  "Am": 468,
  "An": 469,
  "As": 470,
  "At": 471,
  "Au": 472,
  "Aw": 473,
  "BA": 474,
  "BE": 475,
  "BJ": 476,
  "Ba": 477,
  "Be": 478,
  "Bo": 479,
  "By": 480,
  "CJ": 481,
  "Ca": 482,
  "Co": 483,
  "Cy": 484,
  "DO": 485,
  "Da": 486,
  "De": 487,
  "Di": 488,
  "Do": 489,
  "Dr": 490,
  "Du": 491,
  "Ed": 492,
  "Ee": 493,
  "Eh": 494,
  "El": 495,
  "Em": 496,
  "En": 497,
  "Ew": 498,
  "Fi": 499,
  "Fu": 500,
  "GK": 501,
  "GO": 502,
  "Ga": 503,
  "Go": 504,
  "HA": 505,
  "HE": 506,
  "HI": 507,
  "HO": 508,
  "Ha": 509,
  "He": 510,
  "Hi": 511,
  "Hm": 512,
  "Ho": 513,
  "Hy": 514,
  "IF": 515,
  "IT": 516,
  "Id": 517,
  "If": 518,
  "Im": 519,
  "In": 520,
  "Is": 521,
  "It": 522,
  "JJ": 523,
  "Je": 524,
  "Jf": 525,
  "Ji": 526,
  "Jo": 527,
  "Ka": 528,
  "LL": 529,
  "LU": 530,
  "La": 531,
  "Le": 532,
  "Li": 533,
  "Lo": 534,
  "Lt": 535,
  "Lu": 536,
  "ME": 537,
  "Ma": 538,
  "Me": 539,
  "Mi": 540,
  "Mm": 541,
  "Mo": 542,
  "Mr": 543,
  "Ms": 544,
  "Mu": 545,
  "My": 546,
  "NO": 547,
  "Na": 548,
  "Ni": 549,
  "No": 550,
  "OH": 551,
  "OK": 552,
  "ON": 553,
  "OW": 554,
  "Oe": 555,
  "Of": 556,
  "Oh": 557,
  "Oi": 558,
  "Ok": 559,
  "On": 560,
  "Oo": 561,
  "Op": 562,
  "Or": 563,
  "Os": 564,
  "Ow": 565,
  "Ox": 566,
  "PB": 567,
  "PJ": 568,
  "PM": 569,
  "Pa": 570,
  "Pi": 571,
  "Po": 572,
  "Qu": 573,
  "Ra": 574,
  "Re": 575,
  "Ro": 576,
  "Ru": 577,
  "Se": 578,
  "Si": 579,
  "So": 580,
  "St": 581,
  "Su": 582,
  "TV": 583,
  "Ta": 584,
  "Te": 585,
  "Th": 586,
  "To": 587,
  "Ty": 588,
  "Uh": 589,
  "Um": 590,
  "Up": 591,
  "Us": 592,
  "Vi": 593,
  "Vo": 594,
  "WE": 595,
  "Wa": 596,
  "We": 597,
  "Wh": 598,
  "Wi": 599,
  "Wu": 600,
  "Xi": 601,
  "Xy": 602,
  "Ye": 603,
  "Yo": 604,
  "ZA": 605,
  "Zu": 606,
  "\\\"": 607,
  "\\'": 608,
  "],": 609,
  "].": 610,
  "]]": 611,
  "`,": 612,
  "`.": 613,
  "``": 614,
  "aa": 615,
  "ah": 616,
  "al": 617,
  "am": 618,
  "an": 619,
  "ap": 620,
  "ar": 621,
  "as": 622,
  "at": 623,
  "au": 624,
  "aw": 625,
  "ay": 626,
  "ba": 627,
  "be": 628,
  "bo": 629,
  "br": 630,
  "by": 631,
  "ca": 632,
  "ce": 633,
  "ch": 634,
  "cm": 635,
  "cy": 636,
  "da": 637,
  "de": 638,
  "do": 639,
  "dy": 640,
  "ed": 641,
  "ee": 642,
  "eh": 643,
  "el": 644,
  "em": 645,
  "en": 646,
  "er": 647,
  "es": 648,
  "et": 649,
  "ex": 650,
  "ey": 651,
  "fi": 652,
  "fo": 653,
  "ft": 654,
  "ga": 655,
  "go": 656,
  "gr": 657,
  "ha": 658,
  "he": 659,
  "hi": 660,
  "ho": 661,
  "ie": 662,
  "if": 663,
  "ii": 664,
  "im": 665,
  "in": 666,
  "ip": 667,
  "is": 668,
  "it": 669,
  "ix": 670,
  "ka": 671,
  "kg": 672,
  "ks": 673,
  "la": 674,
  "lb": 675,
  "ld": 676,
  "le": 677,
  "li": 678,
  "ll": 679,
  "lo": 680,
  "ly": 681,
  "ma": 682,
  "me": 683,
  "mm": 684,
  "mo": 685,
  "mu": 686,
  "my": 687,
  "na": 688,
  "nd": 689,
  "ng": 690,
  "ni": 691,
  "no": 692,
  "nt": 693,
  "ny": 694,
  "of": 695,
  "og": 696,
  "oh": 697,
  "ok": 698,
  "ol": 699,
  "om": 700,
  "on": 701,
  "oo": 702,
  "or": 703,
  "os": 704,
  "ot": 705,
  "ow": 706,
  "oy": 707,
  "pi": 708,
  "pm": 709,
  "po": 710,
  "py": 711,
  "ra": 712,
  "rd": 713,
  "re": 714,
  "ro": 715,
  "ry": 716,
  "sa": 717,
  "sh": 718,
  "si": 719,
  "so": 720,
  "st": 721,
  "su": 722,
  "sy": 723,
  "ta": 724,
  "te": 725,
  "th": 726,
  "to": 727,
  "tu": 728,
  "ty": 729,
  "uh": 730,
  "um": 731,
  "un": 732,
  "up": 733,
  "us": 734,
  "ve": 735,
  "we": 736,
  "wh": 737,
  "wo": 738,
  "xy": 739,
  "ya": 740,
  "yo": 741,
  "|>": 742,
  "ÂĴ": 743,
  "Âł": 744,
  "Â«": 745,
  "ÂŃ": 746,
  "Â°": 747,
  "Â´": 748,
  "Â·": 749,
  "ĊĉĊ": 750,
  "ĊĊĊ": 751,
  "ĊĊĠ": 752,
  "ĊĠĊ": 753,
  "ĊĠĠ": 754,
  "ĊÂł": 755,
  "ĠĉĊ": 756,
  "ĠĊĉ": 757,
  "ĠĊĊ": 758,
  "ĠĊĠ": 759,
  "ĠĠĊ": 760,
  "ĠĠĠ": 761,
  "Ġ!\"": 762,
  "Ġ\"\"": 763,
  "Ġ\"$": 764,
  "Ġ\"'": 765,
  "Ġ\"(": 766,
  "Ġ\",": 767,
  "Ġ\".": 768,
  "Ġ\"/": 769,
  "Ġ\"<": 770,
  "Ġ\"@": 771,
  "Ġ\"[": 772,
  "Ġ\"\\": 773,
  "Ġ$.": 774,
  "Ġ''": 775,
  "Ġ',": 776,
  "Ġ(\"": 777,
  "Ġ('": 778,
  "Ġ).": 779,
  "Ġ*\"": 780,
  "Ġ**": 781,
  "Ġ,\"": 782,
  "Ġ-\"": 783,
  "Ġ-,": 784,
  "Ġ--": 785,
  "Ġ.\"": 786,
  "Ġ/\"": 787,
  "Ġ07": 788,
  "Ġ10": 789,
  "Ġ11": 790,
  "Ġ12": 791,
  "Ġ13": 792,
  "Ġ14": 793,
  "Ġ15": 794,
  "Ġ16": 795,
  "Ġ17": 796,
  "Ġ18": 797,
  "Ġ19": 798,
  "Ġ20": 799,
  "Ġ21": 800,
  "Ġ22": 801,
  "Ġ23": 802,
  "Ġ24": 803,
  "Ġ25": 804,
  "Ġ27": 805,
  "Ġ28": 806,
  "Ġ29": 807,
  "Ġ30": 808,
  "Ġ31": 809,
  "Ġ32": 810,
  "Ġ34": 811,
  "Ġ35": 812,
  "Ġ36": 813,
  "Ġ37": 814,
  "Ġ38": 815,
  "Ġ39": 816,
  "Ġ40": 817,
  "Ġ41": 818,
  "Ġ42": 819,
  "Ġ45": 820,
  "Ġ48": 821,
  "Ġ50": 822,
  "Ġ52": 823,
  "Ġ54": 824,
  "Ġ55": 825,
  "Ġ58": 826,
  "Ġ59": 827,
  "Ġ60": 828,
  "Ġ61": 829,
  "Ġ64": 830,
  "Ġ65": 831,
  "Ġ68": 832,
  "Ġ70": 833,
  "Ġ72": 834,
  "Ġ73": 835,
  "Ġ75": 836,
  "Ġ76": 837,
  "Ġ78": 838,
  "Ġ80": 839,
  "Ġ85": 840,
  "Ġ90": 841,
  "Ġ91": 842,
  "Ġ93": 843,
  "Ġ95": 844,
  "Ġ97": 845,
  "Ġ98": 846,
  "Ġ99": 847,
  "Ġ:\"": 848,
  "Ġ:(": 849,
  "Ġ:)": 850,
  "Ġ</": 851,
  "Ġ?\"": 852,
  "Ġ?'": 853,
  "ĠAA": 854,
  "ĠAC": 855,
  "ĠAI": 856,
  "ĠAJ": 857,
  "ĠAM": 858,
  "ĠAN": 859,
  "ĠAT": 860,
  "ĠAb": 861,
  "ĠAg": 862,
  "ĠAh": 863,
  "ĠAl": 864,
  "ĠAm": 865,
  "ĠAn": 866,
  "ĠAs": 867,
  "ĠAt": 868,
  "ĠAu": 869,
  "ĠBA": 870,
  "ĠBB": 871,
  "ĠBE": 872,
  "ĠBJ": 873,
  "ĠBY": 874,
  "ĠBa": 875,
  "ĠBe": 876,
  "ĠBi": 877,
  "ĠBo": 878,
  "ĠBs": 879,
  "ĠBy": 880,
  "ĠCD": 881,
  "ĠCJ": 882,
  "ĠCo": 883,
  "ĠCy": 884,
  "ĠDJ": 885,
  "ĠDO": 886,
  "ĠDa": 887,
  "ĠDo": 888,
  "ĠDr": 889,
  "ĠDs": 890,
  "ĠDu": 891,
  "ĠEZ": 892,
  "ĠEd": 893,
  "ĠEe": 894,
  "ĠEl": 895,
  "ĠEm": 896,
  "ĠEn": 897,
  "ĠEs": 898,
  "ĠEt": 899,
  "ĠEw": 900,
  "ĠEx": 901,
  "ĠFM": 902,
  "ĠFY": 903,
  "ĠFi": 904,
  "ĠFl": 905,
  "ĠFu": 906,
  "ĠFy": 907,
  "ĠGE": 908,
  "ĠGI": 909,
  "ĠGO": 910,
  "ĠGY": 911,
  "ĠGo": 912,
  "ĠHO": 913,
  "ĠHa": 914,
  "ĠHe": 915,
  "ĠHi": 916,
  "ĠHo": 917,
  "ĠHs": 918,
  "ĠID": 919,
  "ĠIF": 920,
  "ĠII": 921,
  "ĠIN": 922,
  "ĠIQ": 923,
  "ĠIS": 924,
  "ĠIT": 925,
  "ĠIe": 926,
  "ĠIf": 927,
  "ĠIm": 928,
  "ĠIn": 929,
  "ĠIs": 930,
  "ĠIt": 931,
  "ĠJJ": 932,
  "ĠJi": 933,
  "ĠJo": 934,
  "ĠJr": 935,
  "ĠKA": 936,
  "ĠKi": 937,
  "ĠLA": 938,
  "ĠLa": 939,
  "ĠLi": 940,
  "ĠLo": 941,
  "ĠLs": 942,
  "ĠLt": 943,
  "ĠLu": 944,
  "ĠMA": 945,
  "ĠME": 946,
  "ĠMR": 947,
  "ĠMY": 948,
  "ĠMa": 949,
  "ĠMe": 950,
  "ĠMi": 951,
  "ĠMo": 952,
  "ĠMr": 953,
  "ĠMs": 954,
  "ĠMu": 955,
  "ĠMy": 956,
  "ĠNO": 957,
  "ĠNa": 958,
  "ĠNi": 959,
  "ĠNo": 960,
  "ĠNs": 961,
  "ĠOF": 962,
  "ĠOH": 963,
  "ĠOK": 964,
  "ĠON": 965,
  "ĠOR": 966,
  "ĠOW": 967,
  "ĠOf": 968,
  "ĠOh": 969,
  "ĠOk": 970,
  "ĠOn": 971,
  "ĠOo": 972,
  "ĠOr": 973,
  "ĠOs": 974,
  "ĠOw": 975,
  "ĠOx": 976,
  "ĠOz": 977,
  "ĠPB": 978,
  "ĠPE": 979,
  "ĠPJ": 980,
  "ĠPM": 981,
  "ĠPa": 982,
  "ĠPi": 983,
  "ĠPo": 984,
  "ĠQR": 985,
  "ĠRa": 986,
  "ĠRe": 987,
  "ĠRo": 988,
  "ĠRu": 989,
  "ĠRy": 990,
  "ĠSE": 991,
  "ĠSO": 992,
  "ĠSe": 993,
  "ĠSo": 994,
  "ĠSs": 995,
  "ĠSt": 996,
  "ĠSu": 997,
  "ĠTE": 998,
  "ĠTO": 999,
  "ĠTV": 1000,
  "ĠTa": 1001,
  "ĠTe": 1002,
  "ĠTh": 1003,
  "ĠTi": 1004,
  "ĠTo": 1005,
  "ĠTu": 1006,
  "ĠTy": 1007,
  "ĠUP": 1008,
  "ĠUS": 1009,
  "ĠUh": 1010,
  "ĠUp": 1011,
  "ĠUs": 1012,
  "ĠUt": 1013,
  "ĠVi": 1014,
  "ĠVs": 1015,
  "ĠWE": 1016,
  "ĠWa": 1017,
  "ĠWe": 1018,
  "ĠWi": 1019,
  "ĠWu": 1020,
  "ĠXi": 1021,
  "ĠXs": 1022,
  "ĠXy": 1023,
  "ĠYe": 1024,
  "ĠYo": 1025,
  "ĠZs": 1026,
  "ĠZu": 1027,
  "Ġ\\\"": 1028,
  "Ġ``": 1029,
  "Ġad": 1030,
  "Ġag": 1031,
  "Ġah": 1032,
  "Ġal": 1033,
  "Ġam": 1034,
  "Ġan": 1035,
  "Ġas": 1036,
  "Ġat": 1037,
  "Ġau": 1038,
  "Ġaw": 1039,
  "Ġax": 1040,
  "Ġay": 1041,
  "Ġba": 1042,
  "Ġbe": 1043,
  "Ġbl": 1044,
  "Ġbo": 1045,
  "Ġbt": 1046,
  "Ġbu": 1047,
  "Ġby": 1048,
  "Ġca": 1049,
  "Ġcd": 1050,
  "Ġce": 1051,
  "Ġch": 1052,
  "Ġcm": 1053,
  "Ġco": 1054,
  "Ġda": 1055,
  "Ġde": 1056,
  "Ġdi": 1057,
  "Ġdo": 1058,
  "Ġed": 1059,
  "Ġee": 1060,
  "Ġeh": 1061,
  "Ġel": 1062,
  "Ġen": 1063,
  "Ġer": 1064,
  "Ġes": 1065,
  "Ġew": 1066,
  "Ġey": 1067,
  "Ġfa": 1068,
  "Ġfl": 1069,
  "Ġfo": 1070,
  "Ġfr": 1071,
  "Ġga": 1072,
  "Ġgi": 1073,
  "Ġgo": 1074,
  "Ġgr": 1075,
  "Ġha": 1076,
  "Ġhe": 1077,
  "Ġhi": 1078,
  "Ġhm": 1079,
  "Ġho": 1080,
  "Ġhu": 1081,
  "Ġic": 1082,
  "Ġif": 1083,
  "Ġim": 1084,
  "Ġin": 1085,
  "Ġis": 1086,
  "Ġit": 1087,
  "Ġje": 1088,
  "Ġjo": 1089,
  "Ġka": 1090,
  "Ġke": 1091,
  "Ġkg": 1092,
  "Ġkm": 1093,
  "Ġla": 1094,
  "Ġle": 1095,
  "Ġll": 1096,
  "Ġlo": 1097,
  "Ġly": 1098,
  "Ġma": 1099,
  "Ġme": 1100,
  "Ġmi": 1101,
  "Ġmm": 1102,
  "Ġmo": 1103,
  "Ġmr": 1104,
  "Ġmu": 1105,
  "Ġmy": 1106,
  "Ġna": 1107,
  "Ġng": 1108,
  "Ġni": 1109,
  "Ġno": 1110,
  "Ġof": 1111,
  "Ġoh": 1112,
  "Ġok": 1113,
  "Ġol": 1114,
  "Ġon": 1115,
  "Ġoo": 1116,
  "Ġor": 1117,
  "Ġot": 1118,
  "Ġow": 1119,
  "Ġox": 1120,
  "Ġoy": 1121,
  "Ġpa": 1122,
  "Ġpi": 1123,
  "Ġpj": 1124,
  "Ġpm": 1125,
  "Ġpo": 1126,
  "Ġpu": 1127,
  "Ġqu": 1128,
  "Ġra": 1129,
  "Ġre": 1130,
  "Ġro": 1131,
  "Ġsc": 1132,
  "Ġse": 1133,
  "Ġsh": 1134,
  "Ġsi": 1135,
  "Ġsk": 1136,
  "Ġsn": 1137,
  "Ġso": 1138,
  "Ġst": 1139,
  "Ġsu": 1140,
  "Ġsw": 1141,
  "Ġta": 1142,
  "Ġte": 1143,
  "Ġth": 1144,
  "Ġti": 1145,
  "Ġto": 1146,
  "Ġtr": 1147,
  "Ġts": 1148,
  "Ġtu": 1149,
  "Ġtv": 1150,
  "Ġtw": 1151,
  "Ġug": 1152,
  "Ġuh": 1153,
  "Ġum": 1154,
  "Ġun": 1155,
  "Ġup": 1156,
  "Ġus": 1157,
  "Ġwa": 1158,
  "Ġwe": 1159,
  "Ġwh": 1160,
  "Ġws": 1161,
  "Ġxi": 1162,
  "Ġya": 1163,
  "Ġye": 1164,
  "Ġyo": 1165,
  "Ġza": 1166,
  "ĠÂł": 1167,
  "ĠÂ£": 1168,
  "ĠÂ«": 1169,
  "ĠÂ¿": 1170,
  "!!!": 1171,
  "!!\"": 1172,
  "!\"'": 1173,
  "!\"*": 1174,
  "!\",": 1175,
  "!\".": 1176,
  "!'\"": 1177,
  "!''": 1178,
  "!',": 1179,
  "!'.": 1180,
  "!),": 1181,
  "!).": 1182,
  "!**": 1183,
  "!,\"": 1184,
  "!--": 1185,
  "!.\"": 1186,
  "!</": 1187,
  "!?\"": 1188,
  "!?'": 1189,
  "!\\\"": 1190,
  "!`,": 1191,
  "!`.": 1192,
  "!``": 1193,
  "!Â´": 1194,
  "!Â»": 1195,
  "\"!\"": 1196,
  "\"!.": 1197,
  "\",\"": 1198,
  "\".\"": 1199,
  "\"./": 1200,
  "\".[": 1201,
  "\"?,": 1202,
  "\"Â¡": 1203,
  "'!\"": 1204,
  "'\",": 1205,
  "'\".": 1206,
  "'',": 1207,
  "''.": 1208,
  "',\"": 1209,
  "'.\"": 1210,
  "':)": 1211,
  "'?\"": 1212,
  "'ll": 1213,
  "'re": 1214,
  "'ve": 1215,
  ")\".": 1216,
  ").\"": 1217,
  "***": 1218,
  "**.": 1219,
  ",\"!": 1220,
  ",\",": 1221,
  ",\".": 1222,
  ",'\"": 1223,
  ",''": 1224,
  ",-\"": 1225,
  ",\\\"": 1226,
  ",``": 1227,
  "-!\"": 1228,
  "--\"": 1229,
  "---": 1230,
  ".!\"": 1231,
  ".\"\"": 1232,
  ".\"'": 1233,
  ".\"(": 1234,
  ".\",": 1235,
  ".\".": 1236,
  ".\"[": 1237,
  ".'\"": 1238,
  ".''": 1239,
  ".',": 1240,
  ".'.": 1241,
  ".,\"": 1242,
  "..\"": 1243,
  "...": 1244,
  ".?\"": 1245,
  ".\\\"": 1246,
  ".`.": 1247,
  ".``": 1248,
  ".Â»": 1249,
  "/.\"": 1250,
  "/?\"": 1251,
  "000": 1252,
  "100": 1253,
  "120": 1254,
  "123": 1255,
  "158": 1256,
  "200": 1257,
  "384": 1258,
  "500": 1259,
  "911": 1260,
  ":'.": 1261,
  "://": 1262,
  "=,\"": 1263,
  "?!\"": 1264,
  "?!'": 1265,
  "?!?": 1266,
  "?\"\"": 1267,
  "?\",": 1268,
  "?\".": 1269,
  "?'\"": 1270,
  "?''": 1271,
  "?',": 1272,
  "?'.": 1273,
  "?,\"": 1274,
  "?,'": 1275,
  "?.\"": 1276,
  "??\"": 1277,
  "?\\\"": 1278,
  "?`,": 1279,
  "?`.": 1280,
  "?``": 1281,
  "?Â»": 1282,
  "ABC": 1283,
  "AHH": 1284,
  "AMY": 1285,
  "Aaa": 1286,
  "Aah": 1287,
  "Aba": 1288,
  "Abe": 1289,
  "Abi": 1290,
  "Abu": 1291,
  "Aby": 1292,
  "Ace": 1293,
  "Ach": 1294,
  "Ack": 1295,
  "Act": 1296,
  "Ada": 1297,
  "Add": 1298,
  "Ade": 1299,
  "Adi": 1300,
  "Aga": 1301,
  "Age": 1302,
  "Agh": 1303,
  "Aha": 1304,
  "Ahh": 1305,
  "Ahm": 1306,
  "Aid": 1307,
  "Aim": 1308,
  "Air": 1309,
  "Aja": 1310,
  "Aki": 1311,
  "Aku": 1312,
  "Ala": 1313,
  "Alf": 1314,
  "Ali": 1315,
  "All": 1316,
  "Aly": 1317,
  "Ama": 1318,
  "Ami": 1319,
  "Amu": 1320,
  "Amy": 1321,
  "Ana": 1322,
  "And": 1323,
  "Ani": 1324,
  "Ann": 1325,
  "Ans": 1326,
  "Ant": 1327,
  "Anu": 1328,
  "Any": 1329,
  "Ape": 1330,
  "Ara": 1331,
  "Are": 1332,
  "Arf": 1333,
  "Ari": 1334,
  "Arm": 1335,
  "Arr": 1336,
  "Art": 1337,
  "Ary": 1338,
  "Asa": 1339,
  "Ash": 1340,
  "Ask": 1341,
  "Ati": 1342,
  "Ava": 1343,
  "Avi": 1344,
  "Avo": 1345,
  "Awe": 1346,
  "Aww": 1347,
  "Axe": 1348,
  "Aya": 1349,
  "Aye": 1350,
  "BAA": 1351,
  "BAD": 1352,
  "BAH": 1353,
  "BAM": 1354,
  "BAR": 1355,
  "BEN": 1356,
  "BIG": 1357,
  "BMW": 1358,
  "BOO": 1359,
  "BOW": 1360,
  "BUS": 1361,
  "BUT": 1362,
  "BUY": 1363,
  "Baa": 1364,
  "Bab": 1365,
  "Bac": 1366,
  "Bad": 1367,
  "Bae": 1368,
  "Bag": 1369,
  "Bai": 1370,
  "Bal": 1371,
  "Bam": 1372,
  "Bao": 1373,
  "Bap": 1374,
  "Bas": 1375,
  "Bat": 1376,
  "Bax": 1377,
  "Baz": 1378,
  "Bea": 1379,
  "Bec": 1380,
  "Bed": 1381,
  "Bee": 1382,
  "Bel": 1383,
  "Ben": 1384,
  "Bet": 1385,
  "Big": 1386,
  "Bim": 1387,
  "Bin": 1388,
  "Bip": 1389,
  "Bir": 1390,
  "Bit": 1391,
  "Bla": 1392,
  "Ble": 1393,
  "Blo": 1394,
  "Blu": 1395,
  "Bly": 1396,
  "Bob": 1397,
  "Bom": 1398,
  "Bon": 1399,
  "Boo": 1400,
  "Bop": 1401,
  "Bot": 1402,
  "Bow": 1403,
  "Box": 1404,
  "Boy": 1405,
  "Bri": 1406,
  "Bro": 1407,
  "Brr": 1408,
  "Bru": 1409,
  "Bub": 1410,
  "Bud": 1411,
  "Bug": 1412,
  "Buh": 1413,
  "Bun": 1414,
  "Bur": 1415,
  "Bus": 1416,
  "But": 1417,
  "Buy": 1418,
  "Bye": 1419,
  "Bzz": 1420,
  "CAN": 1421,
  "CAT": 1422,
  "CAW": 1423,
  "CDs": 1424,
  "Caa": 1425,
  "Caf": 1426,
  "Cai": 1427,
  "Cal": 1428,
  "Cam": 1429,
  "Can": 1430,
  "Cap": 1431,
  "Car": 1432,
  "Cas": 1433,
  "Cat": 1434,
  "Caw": 1435,
  "Cax": 1436,
  "Cee": 1437,
  "Cha": 1438,
  "Chi": 1439,
  "Com": 1440,
  "Coo": 1441,
  "Cop": 1442,
  "Cos": 1443,
  "Cow": 1444,
  "Cry": 1445,
  "Cub": 1446,
  "Cuh": 1447,
  "Cup": 1448,
  "Cut": 1449,
  "Cuz": 1450,
  "DAD": 1451,
  "DOG": 1452,
  "DON": 1453,
  "Dab": 1454,
  "Dad": 1455,
  "Dam": 1456,
  "Dan": 1457,
  "Dax": 1458,
  "Day": 1459,
  "Daz": 1460,
  "Deb": 1461,
  "Dee": 1462,
  "Del": 1463,
  "Den": 1464,
  "Der": 1465,
  "Dex": 1466,
  "Dia": 1467,
  "Dic": 1468,
  "Did": 1469,
  "Die": 1470,
  "Dig": 1471,
  "Din": 1472,
  "Dip": 1473,
  "Dis": 1474,
  "Doc": 1475,
  "Doe": 1476,
  "Dog": 1477,
  "Doh": 1478,
  "Dol": 1479,
  "Dom": 1480,
  "Don": 1481,
  "Doo": 1482,
  "Dop": 1483,
  "Dos": 1484,
  "Dot": 1485,
  "Dry": 1486,
  "Dub": 1487,
  "Due": 1488,
  "Dug": 1489,
  "Dum": 1490,
  "Dun": 1491,
  "Dye": 1492,
  "EAT": 1493,
  "EEK": 1494,
  "EMS": 1495,
  "END": 1496,
  "Ear": 1497,
  "Eat": 1498,
  "Edi": 1499,
  "Eee": 1500,
  "Eek": 1501,
  "Eep": 1502,
  "Eew": 1503,
  "Egg": 1504,
  "Ela": 1505,
  "Ele": 1506,
  "Elf": 1507,
  "Eli": 1508,
  "Ell": 1509,
  "Elp": 1510,
  "Elu": 1511,
  "Ely": 1512,
  "Ema": 1513,
  "Emi": 1514,
  "Emu": 1515,
  "Emy": 1516,
  "End": 1517,
  "Erm": 1518,
  "Err": 1519,
  "Esm": 1520,
  "Esy": 1521,
  "Euw": 1522,
  "Eva": 1523,
  "Eve": 1524,
  "Eww": 1525,
  "Exy": 1526,
  "Eye": 1527,
  "FIN": 1528,
  "FRI": 1529,
  "Fab": 1530,
  "Fae": 1531,
  "Fan": 1532,
  "Fap": 1533,
  "Far": 1534,
  "Fat": 1535,
  "Fax": 1536,
  "Fay": 1537,
  "Fed": 1538,
  "Fee": 1539,
  "Fei": 1540,
  "Few": 1541,
  "Fia": 1542,
  "Fig": 1543,
  "Fil": 1544,
  "Fin": 1545,
  "Fir": 1546,
  "Fit": 1547,
  "Fix": 1548,
  "Flo": 1549,
  "Fly": 1550,
  "Fog": 1551,
  "Foo": 1552,
  "For": 1553,
  "Fox": 1554,
  "Foy": 1555,
  "Foz": 1556,
  "Fra": 1557,
  "Fre": 1558,
  "Fro": 1559,
  "Fry": 1560,
  "Fsh": 1561,
  "Fun": 1562,
  "Fur": 1563,
  "GAS": 1564,
  "GET": 1565,
  "GMA": 1566,
  "Gah": 1567,
  "Gar": 1568,
  "Gas": 1569,
  "Gee": 1570,
  "Geh": 1571,
  "Gel": 1572,
  "Gem": 1573,
  "Geo": 1574,
  "Get": 1575,
  "Gia": 1576,
  "Gil": 1577,
  "Gio": 1578,
  "Gir": 1579,
  "Glo": 1580,
  "God": 1581,
  "Gog": 1582,
  "Goo": 1583,
  "Gor": 1584,
  "Got": 1585,
  "Grr": 1586,
  "Gui": 1587,
  "Gum": 1588,
  "Gun": 1589,
  "Gus": 1590,
  "Guy": 1591,
  "Gym": 1592,
  "HEY": 1593,
  "HOP": 1594,
  "HOT": 1595,
  "HUG": 1596,
  "Had": 1597,
  "Hah": 1598,
  "Hal": 1599,
  "Ham": 1600,
  "Han": 1601,
  "Hao": 1602,
  "Hap": 1603,
  "Has": 1604,
  "Hat": 1605,
  "Haw": 1606,
  "Hay": 1607,
  "Hee": 1608,
  "Heh": 1609,
  "Hel": 1610,
  "Hen": 1611,
  "Heo": 1612,
  "Her": 1613,
  "Hey": 1614,
  "Hia": 1615,
  "Him": 1616,
  "Hip": 1617,
  "His": 1618,
  "Hit": 1619,
  "Hmm": 1620,
  "Hon": 1621,
  "Hoo": 1622,
  "Hop": 1623,
  "Hot": 1624,
  "How": 1625,
  "Hug": 1626,
  "Huh": 1627,
  "Hum": 1628,
  "Hup": 1629,
  "Hut": 1630,
  "ICE": 1631,
  "Ian": 1632,
  "Ice": 1633,
  "Ick": 1634,
  "Icy": 1635,
  "Ida": 1636,
  "Ife": 1637,
  "Ike": 1638,
  "Ila": 1639,
  "Ima": 1640,
  "Imi": 1641,
  "Ina": 1642,
  "Ink": 1643,
  "Ira": 1644,
  "Ish": 1645,
  "Isn": 1646,
  "Isy": 1647,
  "Its": 1648,
  "Ivy": 1649,
  "Iza": 1650,
  "Jac": 1651,
  "Jai": 1652,
  "Jak": 1653,
  "Jam": 1654,
  "Jan": 1655,
  "Jar": 1656,
  "Jax": 1657,
  "Jay": 1658,
  "Jaz": 1659,
  "Jeb": 1660,
  "Jed": 1661,
  "Jee": 1662,
  "Jem": 1663,
  "Jen": 1664,
  "Jet": 1665,
  "Jez": 1666,
  "Jia": 1667,
  "Jib": 1668,
  "Jil": 1669,
  "Jim": 1670,
  "Jin": 1671,
  "Jio": 1672,
  "Jip": 1673,
  "Job": 1674,
  "Joe": 1675,
  "Jog": 1676,
  "Jon": 1677,
  "Joo": 1678,
  "Jos": 1679,
  "Joy": 1680,
  "Jub": 1681,
  "Jud": 1682,
  "Jug": 1683,
  "Jun": 1684,
  "KIm": 1685,
  "Kaa": 1686,
  "Kae": 1687,
  "Kai": 1688,
  "Kat": 1689,
  "Kaw": 1690,
  "Kay": 1691,
  "Keb": 1692,
  "Kel": 1693,
  "Ken": 1694,
  "Kev": 1695,
  "Key": 1696,
  "Kia": 1697,
  "Kid": 1698,
  "Kim": 1699,
  "Kio": 1700,
  "Kip": 1701,
  "Kit": 1702,
  "Kuh": 1703,
  "Kya": 1704,
  "Kym": 1705,
  "Kzz": 1706,
  "LAB": 1707,
  "LAW": 1708,
  "LET": 1709,
  "Lab": 1710,
  "Lah": 1711,
  "Lam": 1712,
  "Lan": 1713,
  "Lav": 1714,
  "Law": 1715,
  "Lay": 1716,
  "Lea": 1717,
  "Led": 1718,
  "Lee": 1719,
  "Leg": 1720,
  "Len": 1721,
  "Leo": 1722,
  "Les": 1723,
  "Let": 1724,
  "Lew": 1725,
  "Lex": 1726,
  "Ley": 1727,
  "Lia": 1728,
  "Lib": 1729,
  "Lie": 1730,
  "Lil": 1731,
  "Lin": 1732,
  "Lip": 1733,
  "Lis": 1734,
  "Liv": 1735,
  "Liz": 1736,
  "Log": 1737,
  "Lon": 1738,
  "Loo": 1739,
  "Lot": 1740,
  "Lou": 1741,
  "Low": 1742,
  "Lua": 1743,
  "Luc": 1744,
  "Luh": 1745,
  "Lux": 1746,
  "Luz": 1747,
  "Lyn": 1748,
  "MAY": 1749,
  "MIA": 1750,
  "MMM": 1751,
  "MOM": 1752,
  "MOO": 1753,
  "MOP": 1754,
  "MUM": 1755,
  "Maa": 1756,
  "Mac": 1757,
  "Mad": 1758,
  "Mae": 1759,
  "Mag": 1760,
  "Mai": 1761,
  "Mal": 1762,
  "Mam": 1763,
  "Man": 1764,
  "Map": 1765,
  "Mat": 1766,
  "Mav": 1767,
  "Max": 1768,
  "May": 1769,
  "Mea": 1770,
  "Mee": 1771,
  "Meg": 1772,
  "Meh": 1773,
  "Mei": 1774,
  "Mel": 1775,
  "Men": 1776,
  "Mew": 1777,
  "Mhm": 1778,
  "Mia": 1779,
  "Mic": 1780,
  "Mid": 1781,
  "Mie": 1782,
  "Mim": 1783,
  "Min": 1784,
  "Mit": 1785,
  "Mix": 1786,
  "Mmm": 1787,
  "Moe": 1788,
  "Mom": 1789,
  "Mon": 1790,
  "Moo": 1791,
  "Mop": 1792,
  "Mor": 1793,
  "Mow": 1794,
  "Mrs": 1795,
  "Mud": 1796,
  "Muf": 1797,
  "Mug": 1798,
  "Muh": 1799,
  "Mum": 1800,
  "Muy": 1801,
  "Mya": 1802,
  "NOW": 1803,
  "Naa": 1804,
  "Nah": 1805,
  "Nan": 1806,
  "Nap": 1807,
  "Nat": 1808,
  "Nay": 1809,
  "Ned": 1810,
  "Nee": 1811,
  "Neh": 1812,
  "Nel": 1813,
  "Neo": 1814,
  "Net": 1815,
  "New": 1816,
  "Nia": 1817,
  "Nic": 1818,
  "Nip": 1819,
  "Nnn": 1820,
  "Noa": 1821,
  "Nod": 1822,
  "Nom": 1823,
  "Nop": 1824,
  "Not": 1825,
  "Now": 1826,
  "Nuh": 1827,
  "Nus": 1828,
  "Nut": 1829,
  "Nya": 1830,
  "OFF": 1831,
  "OIL": 1832,
  "OLD": 1833,
  "OMG": 1834,
  "OMM": 1835,
  "OOF": 1836,
  "OUR": 1837,
  "OWL": 1838,
  "OWW": 1839,
  "Oak": 1840,
  "Oat": 1841,
  "Off": 1842,
  "Ohh": 1843,
  "Oho": 1844,
  "Oil": 1845,
  "Oki": 1846,
  "Old": 1847,
  "Oli": 1848,
  "Ona": 1849,
  "One": 1850,
  "Oni": 1851,
  "Oof": 1852,
  "Ooh": 1853,
  "Ook": 1854,
  "Oon": 1855,
  "Ooo": 1856,
  "Our": 1857,
  "Out": 1858,
  "Owl": 1859,
  "Own": 1860,
  "Owt": 1861,
  "Oxy": 1862,
  "POP": 1863,
  "POW": 1864,
  "Pal": 1865,
  "Pam": 1866,
  "Pan": 1867,
  "Pao": 1868,
  "Pap": 1869,
  "Par": 1870,
  "Pat": 1871,
  "Paw": 1872,
  "Pay": 1873,
  "Pea": 1874,
  "Pee": 1875,
  "Pen": 1876,
  "Pep": 1877,
  "Pet": 1878,
  "Pew": 1879,
  "Phe": 1880,
  "Pia": 1881,
  "Pie": 1882,
  "Pig": 1883,
  "Pik": 1884,
  "Pin": 1885,
  "Pio": 1886,
  "Pip": 1887,
  "Pit": 1888,
  "Poh": 1889,
  "Poo": 1890,
  "Pop": 1891,
  "Pot": 1892,
  "Pow": 1893,
  "Pru": 1894,
  "Puh": 1895,
  "Pum": 1896,
  "Pup": 1897,
  "Put": 1898,
  "RIP": 1899,
  "RUN": 1900,
  "Rad": 1901,
  "Rae": 1902,
  "Rag": 1903,
  "Raj": 1904,
  "Ram": 1905,
  "Ran": 1906,
  "Rat": 1907,
  "Raw": 1908,
  "Rax": 1909,
  "Ray": 1910,
  "Raz": 1911,
  "Rec": 1912,
  "Red": 1913,
  "Ree": 1914,
  "Reg": 1915,
  "Ren": 1916,
  "Rex": 1917,
  "Rey": 1918,
  "Ria": 1919,
  "Ric": 1920,
  "Rig": 1921,
  "Rik": 1922,
  "Ril": 1923,
  "Rin": 1924,
  "Rio": 1925,
  "Rip": 1926,
  "Rix": 1927,
  "Riz": 1928,
  "Rob": 1929,
  "Rod": 1930,
  "Ron": 1931,
  "Roo": 1932,
  "Rot": 1933,
  "Rou": 1934,
  "Row": 1935,
  "Roy": 1936,
  "Rrr": 1937,
  "Rub": 1938,
  "Rug": 1939,
  "Run": 1940,
  "Rux": 1941,
  "Rya": 1942,
  "SAM": 1943,
  "SOS": 1944,
  "SUP": 1945,
  "Sad": 1946,
  "Sal": 1947,
  "Sam": 1948,
  "Sat": 1949,
  "Saw": 1950,
  "Sax": 1951,
  "Say": 1952,
  "Sea": 1953,
  "Seb": 1954,
  "See": 1955,
  "Set": 1956,
  "Sew": 1957,
  "She": 1958,
  "Shh": 1959,
  "Shu": 1960,
  "Shy": 1961,
  "Sia": 1962,
  "Sid": 1963,
  "Sim": 1964,
  "Sir": 1965,
  "Sis": 1966,
  "Sit": 1967,
  "Six": 1968,
  "Ski": 1969,
  "Sky": 1970,
  "Sly": 1971,
  "Sol": 1972,
  "Son": 1973,
  "Soy": 1974,
  "Spa": 1975,
  "Squ": 1976,
  "Ssh": 1977,
  "Sss": 1978,
  "Sto": 1979,
  "Stu": 1980,
  "Sue": 1981,
  "Sum": 1982,
  "Sun": 1983,
  "Syd": 1984,
  "THE": 1985,
  "THe": 1986,
  "TIE": 1987,
  "TIK": 1988,
  "TIM": 1989,
  "TOM": 1990,
  "TVs": 1991,
  "Tac": 1992,
  "Tad": 1993,
  "Tag": 1994,
  "Taj": 1995,
  "Tak": 1996,
  "Tal": 1997,
  "Tam": 1998,
  "Tan": 1999,
  "Tap": 2000,
  "Tau": 2001,
  "Tay": 2002,
  "Taz": 2003,
  "Tea": 2004,
  "Ted": 2005,
  "Tee": 2006,
  "Teh": 2007,
  "Ten": 2008,
  "Teo": 2009,
  "Tep": 2010,
  "The": 2011,
  "Tia": 2012,
  "Tic": 2013,
  "Tie": 2014,
  "Tig": 2015,
  "Tik": 2016,
  "Tim": 2017,
  "Tin": 2018,
  "Tip": 2019,
  "Tis": 2020,
  "Tiy": 2021,
  "Tod": 2022,
  "Toe": 2023,
  "Tom": 2024,
  "Ton": 2025,
  "Too": 2026,
  "Top": 2027,
  "Tot": 2028,
  "Tow": 2029,
  "Toy": 2030,
  "Tra": 2031,
  "Tri": 2032,
  "Try": 2033,
  "Tuc": 2034,
  "Tug": 2035,
  "Tui": 2036,
  "Tum": 2037,
  "Tur": 2038,
  "Tut": 2039,
  "Two": 2040,
  "Tye": 2041,
  "Typ": 2042,
  "UFO": 2043,
  "USA": 2044,
  "Ugh": 2045,
  "Ugu": 2046,
  "Uma": 2047,
  "Umi": 2048,
  "Umm": 2049,
  "Una": 2050,
  "Uni": 2051,
  "Uno": 2052,
  "Ups": 2053,
  "Use": 2054,
  "Usi": 2055,
  "Utu": 2056,
  "VET": 2057,
  "VIP": 2058,
  "Val": 2059,
  "Van": 2060,
  "Vee": 2061,
  "Ven": 2062,
  "Vet": 2063,
  "Vic": 2064,
  "Vik": 2065,
  "Viv": 2066,
  "WAY": 2067,
  "WHO": 2068,
  "WHY": 2069,
  "WIN": 2070,
  "WOO": 2071,
  "WOW": 2072,
  "Waa": 2073,
  "Wag": 2074,
  "Wah": 2075,
  "War": 2076,
  "Was": 2077,
  "Wax": 2078,
  "Way": 2079,
  "Wee": 2080,
  "Wel": 2081,
  "Wes": 2082,
  "Wet": 2083,
  "Who": 2084,
  "Why": 2085,
  "Wil": 2086,
  "Win": 2087,
  "Won": 2088,
  "Woo": 2089,
  "Wow": 2090,
  "Wuh": 2091,
  "Wuv": 2092,
  "Xie": 2093,
  "YAY": 2094,
  "YEI": 2095,
  "YES": 2096,
  "YET": 2097,
  "YOU": 2098,
  "YUM": 2099,
  "Yah": 2100,
  "Yaw": 2101,
  "Yay": 2102,
  "Yea": 2103,
  "Yee": 2104,
  "Yeh": 2105,
  "Yep": 2106,
  "Yes": 2107,
  "Yet": 2108,
  "Yey": 2109,
  "Yip": 2110,
  "Yoh": 2111,
  "Yoo": 2112,
  "You": 2113,
  "Yow": 2114,
  "Yuk": 2115,
  "Yum": 2116,
  "Yup": 2117,
  "Yut": 2118,
  "ZIP": 2119,
  "ZOG": 2120,
  "ZOO": 2121,
  "ZQX": 2122,
  "Zac": 2123,
  "Zag": 2124,
  "Zak": 2125,
  "Zap": 2126,
  "Zar": 2127,
  "Zeb": 2128,
  "Zed": 2129,
  "Zee": 2130,
  "Zen": 2131,
  "Zia": 2132,
  "Zib": 2133,
  "Zig": 2134,
  "Zim": 2135,
  "Zip": 2136,
  "Ziz": 2137,
  "Zoe": 2138,
  "Zog": 2139,
  "Zoo": 2140,
  "Zzz": 2141,
  "\\\".": 2142,
  "]\".": 2143,
  "```": 2144,
  "aaa": 2145,
  "aah": 2146,
  "aba": 2147,
  "act": 2148,
  "add": 2149,
  "ade": 2150,
  "ago": 2151,
  "aha": 2152,
  "ahh": 2153,
  "ahn": 2154,
  "aid": 2155,
  "air": 2156,
  "aka": 2157,
  "ala": 2158,
  "ali": 2159,
  "all": 2160,
  "and": 2161,
  "ant": 2162,
  "any": 2163,
  "are": 2164,
  "arf": 2165,
  "ark": 2166,
  "arm": 2167,
  "arr": 2168,
  "ash": 2169,
  "ask": 2170,
  "ass": 2171,
  "ata": 2172,
  "ate": 2173,
  "aww": 2174,
  "axe": 2175,
  "aye": 2176,
  "baa": 2177,
  "bad": 2178,
  "bag": 2179,
  "bah": 2180,
  "bam": 2181,
  "bar": 2182,
  "bat": 2183,
  "bed": 2184,
  "bee": 2185,
  "ber": 2186,
  "big": 2187,
  "bin": 2188,
  "bit": 2189,
  "ble": 2190,
  "bob": 2191,
  "bog": 2192,
  "bon": 2193,
  "boo": 2194,
  "bop": 2195,
  "bot": 2196,
  "bow": 2197,
  "box": 2198,
  "boy": 2199,
  "bra": 2200,
  "bub": 2201,
  "bug": 2202,
  "buh": 2203,
  "bul": 2204,
  "bum": 2205,
  "bun": 2206,
  "bur": 2207,
  "bus": 2208,
  "but": 2209,
  "buy": 2210,
  "bye": 2211,
  "cal": 2212,
  "can": 2213,
  "cap": 2214,
  "car": 2215,
  "cat": 2216,
  "caw": 2217,
  "cha": 2218,
  "chi": 2219,
  "cle": 2220,
  "cog": 2221,
  "coh": 2222,
  "com": 2223,
  "coo": 2224,
  "cop": 2225,
  "cor": 2226,
  "cos": 2227,
  "cov": 2228,
  "cow": 2229,
  "cro": 2230,
  "cry": 2231,
  "cue": 2232,
  "cup": 2233,
  "cut": 2234,
  "cuz": 2235,
  "dad": 2236,
  "dah": 2237,
  "dat": 2238,
  "day": 2239,
  "dee": 2240,
  "der": 2241,
  "dic": 2242,
  "did": 2243,
  "die": 2244,
  "dig": 2245,
  "dil": 2246,
  "din": 2247,
  "dip": 2248,
  "div": 2249,
  "dog": 2250,
  "doh": 2251,
  "don": 2252,
  "doo": 2253,
  "dot": 2254,
  "dry": 2255,
  "dub": 2256,
  "dug": 2257,
  "dum": 2258,
  "dun": 2259,
  "ear": 2260,
  "eat": 2261,
  "eca": 2262,
  "eee": 2263,
  "eek": 2264,
  "eew": 2265,
  "egg": 2266,
  "end": 2267,
  "ere": 2268,
  "ers": 2269,
  "est": 2270,
  "eww": 2271,
  "eye": 2272,
  "fan": 2273,
  "fat": 2274,
  "fed": 2275,
  "fer": 2276,
  "fff": 2277,
  "fin": 2278,
  "fit": 2279,
  "fix": 2280,
  "fly": 2281,
  "fog": 2282,
  "for": 2283,
  "fox": 2284,
  "fry": 2285,
  "ful": 2286,
  "fum": 2287,
  "fun": 2288,
  "fur": 2289,
  "gah": 2290,
  "gas": 2291,
  "gem": 2292,
  "ger": 2293,
  "get": 2294,
  "gie": 2295,
  "gig": 2296,
  "gle": 2297,
  "god": 2298,
  "gon": 2299,
  "goo": 2300,
  "got": 2301,
  "grr": 2302,
  "gul": 2303,
  "gum": 2304,
  "gun": 2305,
  "gym": 2306,
  "had": 2307,
  "hah": 2308,
  "hat": 2309,
  "haw": 2310,
  "hay": 2311,
  "hee": 2312,
  "hel": 2313,
  "hen": 2314,
  "her": 2315,
  "hex": 2316,
  "hey": 2317,
  "hid": 2318,
  "him": 2319,
  "hip": 2320,
  "his": 2321,
  "hit": 2322,
  "hmf": 2323,
  "hmm": 2324,
  "hod": 2325,
  "hoo": 2326,
  "hop": 2327,
  "hot": 2328,
  "how": 2329,
  "hug": 2330,
  "huh": 2331,
  "hum": 2332,
  "ice": 2333,
  "icy": 2334,
  "ily": 2335,
  "ine": 2336,
  "ing": 2337,
  "ink": 2338,
  "ins": 2339,
  "ish": 2340,
  "isn": 2341,
  "isy": 2342,
  "its": 2343,
  "ive": 2344,
  "jam": 2345,
  "jar": 2346,
  "jay": 2347,
  "jet": 2348,
  "jig": 2349,
  "job": 2350,
  "jog": 2351,
  "joy": 2352,
  "jug": 2353,
  "kaa": 2354,
  "kay": 2355,
  "kee": 2356,
  "key": 2357,
  "kgs": 2358,
  "kid": 2359,
  "kit": 2360,
  "kkk": 2361,
  "kuh": 2362,
  "lab": 2363,
  "lah": 2364,
  "law": 2365,
  "lay": 2366,
  "lbs": 2367,
  "led": 2368,
  "lee": 2369,
  "leg": 2370,
  "let": 2371,
  "lie": 2372,
  "lil": 2373,
  "lip": 2374,
  "lis": 2375,
  "lit": 2376,
  "lll": 2377,
  "log": 2378,
  "loo": 2379,
  "lot": 2380,
  "low": 2381,
  "luh": 2382,
  "lye": 2383,
  "maa": 2384,
  "mad": 2385,
  "man": 2386,
  "mao": 2387,
  "map": 2388,
  "mat": 2389,
  "max": 2390,
  "may": 2391,
  "maz": 2392,
  "mee": 2393,
  "meh": 2394,
  "men": 2395,
  "mew": 2396,
  "mis": 2397,
  "mix": 2398,
  "mmm": 2399,
  "mom": 2400,
  "mon": 2401,
  "moo": 2402,
  "mop": 2403,
  "mud": 2404,
  "muh": 2405,
  "mum": 2406,
  "mus": 2407,
  "nah": 2408,
  "nap": 2409,
  "naw": 2410,
  "nay": 2411,
  "nde": 2412,
  "nee": 2413,
  "net": 2414,
  "new": 2415,
  "ngm": 2416,
  "nic": 2417,
  "nit": 2418,
  "nnn": 2419,
  "nny": 2420,
  "nod": 2421,
  "nom": 2422,
  "not": 2423,
  "now": 2424,
  "nuh": 2425,
  "nut": 2426,
  "oak": 2427,
  "oat": 2428,
  "off": 2429,
  "oil": 2430,
  "old": 2431,
  "one": 2432,
  "ons": 2433,
  "oof": 2434,
  "ooh": 2435,
  "ook": 2436,
  "ooo": 2437,
  "ore": 2438,
  "our": 2439,
  "ous": 2440,
  "out": 2441,
  "ouw": 2442,
  "owl": 2443,
  "own": 2444,
  "oww": 2445,
  "pad": 2446,
  "pah": 2447,
  "pao": 2448,
  "par": 2449,
  "pat": 2450,
  "paw": 2451,
  "pay": 2452,
  "pea": 2453,
  "pee": 2454,
  "pen": 2455,
  "per": 2456,
  "pet": 2457,
  "pew": 2458,
  "pie": 2459,
  "pig": 2460,
  "pik": 2461,
  "pin": 2462,
  "pip": 2463,
  "pit": 2464,
  "ple": 2465,
  "pom": 2466,
  "poo": 2467,
  "pop": 2468,
  "por": 2469,
  "pot": 2470,
  "pow": 2471,
  "puh": 2472,
  "pul": 2473,
  "pup": 2474,
  "pur": 2475,
  "put": 2476,
  "qaf": 2477,
  "rac": 2478,
  "ran": 2479,
  "ras": 2480,
  "rat": 2481,
  "ray": 2482,
  "red": 2483,
  "ree": 2484,
  "reg": 2485,
  "rex": 2486,
  "rin": 2487,
  "rip": 2488,
  "rod": 2489,
  "roo": 2490,
  "rot": 2491,
  "row": 2492,
  "rrr": 2493,
  "rub": 2494,
  "run": 2495,
  "sac": 2496,
  "sad": 2497,
  "sam": 2498,
  "sar": 2499,
  "sat": 2500,
  "sau": 2501,
  "saw": 2502,
  "say": 2503,
  "sea": 2504,
  "sed": 2505,
  "see": 2506,
  "sep": 2507,
  "ser": 2508,
  "set": 2509,
  "she": 2510,
  "shh": 2511,
  "shy": 2512,
  "sic": 2513,
  "sin": 2514,
  "sir": 2515,
  "sit": 2516,
  "six": 2517,
  "sky": 2518,
  "sob": 2519,
  "son": 2520,
  "spa": 2521,
  "spe": 2522,
  "spy": 2523,
  "squ": 2524,
  "sss": 2525,
  "sty": 2526,
  "suc": 2527,
  "suh": 2528,
  "sun": 2529,
  "tac": 2530,
  "tag": 2531,
  "tah": 2532,
  "tan": 2533,
  "tap": 2534,
  "tat": 2535,
  "tay": 2536,
  "tea": 2537,
  "ted": 2538,
  "tel": 2539,
  "ten": 2540,
  "ter": 2541,
  "the": 2542,
  "tic": 2543,
  "tie": 2544,
  "til": 2545,
  "tim": 2546,
  "tip": 2547,
  "tis": 2548,
  "tit": 2549,
  "toe": 2550,
  "tom": 2551,
  "too": 2552,
  "top": 2553,
  "tor": 2554,
  "toy": 2555,
  "tra": 2556,
  "tri": 2557,
  "try": 2558,
  "tsp": 2559,
  "tub": 2560,
  "tug": 2561,
  "tut": 2562,
  "two": 2563,
  "uch": 2564,
  "ugh": 2565,
  "ume": 2566,
  "umm": 2567,
  "uos": 2568,
  "ups": 2569,
  "urn": 2570,
  "urr": 2571,
  "use": 2572,
  "van": 2573,
  "vay": 2574,
  "vet": 2575,
  "vid": 2576,
  "wag": 2577,
  "wah": 2578,
  "war": 2579,
  "was": 2580,
  "way": 2581,
  "web": 2582,
  "wee": 2583,
  "wek": 2584,
  "wet": 2585,
  "who": 2586,
  "why": 2587,
  "win": 2588,
  "wit": 2589,
  "won": 2590,
  "woo": 2591,
  "wop": 2592,
  "wow": 2593,
  "wub": 2594,
  "www": 2595,
  "yah": 2596,
  "yay": 2597,
  "yee": 2598,
  "yes": 2599,
  "yet": 2600,
  "yip": 2601,
  "yos": 2602,
  "you": 2603,
  "yuk": 2604,
  "yum": 2605,
  "yup": 2606,
  "zab": 2607,
  "zag": 2608,
  "zam": 2609,
  "zap": 2610,
  "zee": 2611,
  "zim": 2612,
  "zip": 2613,
  "zon": 2614,
  "zoo": 2615,
  "zzz": 2616,
  "~~~": 2617,
  "ÂłĊ": 2618,
  "ÂłĠ": 2619,
  "âĢħ": 2620,
  "âĢī": 2621,
  "âĢĬ": 2622,
  "âĢĭ": 2623,
  "âĢĳ": 2624,
  "âĢĵ": 2625,
  "âĢĶ": 2626,
  "âĢķ": 2627,
  "âĢĺ": 2628,
  "âĢĻ": 2629,
  "âĢľ": 2630,
  "âĢĿ": 2631,
  "âĢ¦": 2632,
  "âĢ¨": 2633,
  "âĤ¬": 2634,
  "âĪĴ": 2635,
  "âĶĢ": 2636,
  "âĿ¤": 2637,
  "ãĢĤ": 2638,
  "ï¼Į": 2639,
  "ĊĊÂł": 2640,
  "ĊĠĊĊ": 2641,
  "ĊĠĊĠ": 2642,
  "ĊĠĠĠ": 2643,
  "ĠĊĊĊ": 2644,
  "ĠĊĊĠ": 2645,
  "ĠĊĠĊ": 2646,
  "ĠĊĠĠ": 2647,
  "ĠĊÂł": 2648,
  "ĠĠĊĊ": 2649,
  "ĠĠĊĠ": 2650,
  "ĠĠĠĊ": 2651,
  "ĠĠĠĠ": 2652,
  "Ġ!\",": 2653,
  "Ġ!\".": 2654,
  "Ġ!'.": 2655,
  "Ġ\"Â¡": 2656,
  "Ġ\"Â¿": 2657,
  "Ġ---": 2658,
  "Ġ...": 2659,
  "Ġ100": 2660,
  "Ġ101": 2661,
  "Ġ102": 2662,
  "Ġ109": 2663,
  "Ġ120": 2664,
  "Ġ123": 2665,
  "Ġ150": 2666,
  "Ġ164": 2667,
  "Ġ178": 2668,
  "Ġ180": 2669,
  "Ġ200": 2670,
  "Ġ205": 2671,
  "Ġ206": 2672,
  "Ġ212": 2673,
  "Ġ220": 2674,
  "Ġ260": 2675,
  "Ġ295": 2676,
  "Ġ300": 2677,
  "Ġ305": 2678,
  "Ġ312": 2679,
  "Ġ314": 2680,
  "Ġ350": 2681,
  "Ġ360": 2682,
  "Ġ365": 2683,
  "Ġ366": 2684,
  "Ġ400": 2685,
  "Ġ405": 2686,
  "Ġ450": 2687,
  "Ġ456": 2688,
  "Ġ476": 2689,
  "Ġ500": 2690,
  "Ġ512": 2691,
  "Ġ555": 2692,
  "Ġ600": 2693,
  "Ġ700": 2694,
  "Ġ747": 2695,
  "Ġ836": 2696,
  "Ġ911": 2697,
  "Ġ999": 2698,
  "Ġ:-(": 2699,
  "Ġ:-)": 2700,
  "Ġ?\".": 2701,
  "ĠABC": 2702,
  "ĠACT": 2703,
  "ĠALL": 2704,
  "ĠAND": 2705,
  "ĠARE": 2706,
  "ĠASK": 2707,
  "ĠATM": 2708,
  "ĠAba": 2709,
  "ĠAbe": 2710,
  "ĠAbi": 2711,
  "ĠAbu": 2712,
  "ĠAby": 2713,
  "ĠAce": 2714,
  "ĠAct": 2715,
  "ĠAcy": 2716,
  "ĠAda": 2717,
  "ĠAdd": 2718,
  "ĠAde": 2719,
  "ĠAdi": 2720,
  "ĠAds": 2721,
  "ĠAga": 2722,
  "ĠAge": 2723,
  "ĠAha": 2724,
  "ĠAhh": 2725,
  "ĠAhm": 2726,
  "ĠAid": 2727,
  "ĠAim": 2728,
  "ĠAir": 2729,
  "ĠAja": 2730,
  "ĠAki": 2731,
  "ĠAku": 2732,
  "ĠAla": 2733,
  "ĠAlf": 2734,
  "ĠAli": 2735,
  "ĠAll": 2736,
  "ĠAly": 2737,
  "ĠAma": 2738,
  "ĠAmi": 2739,
  "ĠAmu": 2740,
  "ĠAmy": 2741,
  "ĠAna": 2742,
  "ĠAnd": 2743,
  "ĠAng": 2744,
  "ĠAni": 2745,
  "ĠAnn": 2746,
  "ĠAnt": 2747,
  "ĠAnu": 2748,
  "ĠAny": 2749,
  "ĠApp": 2750,
  "ĠAra": 2751,
  "ĠAre": 2752,
  "ĠArf": 2753,
  "ĠAri": 2754,
  "ĠArm": 2755,
  "ĠArn": 2756,
  "ĠArr": 2757,
  "ĠArt": 2758,
  "ĠAry": 2759,
  "ĠAsa": 2760,
  "ĠAsh": 2761,
  "ĠAsk": 2762,
  "ĠAte": 2763,
  "ĠAti": 2764,
  "ĠAva": 2765,
  "ĠAvi": 2766,
  "ĠAvo": 2767,
  "ĠAww": 2768,
  "ĠAxe": 2769,
  "ĠAya": 2770,
  "ĠAye": 2771,
  "ĠAyo": 2772,
  "ĠBAA": 2773,
  "ĠBAD": 2774,
  "ĠBAM": 2775,
  "ĠBBC": 2776,
  "ĠBBQ": 2777,
  "ĠBEE": 2778,
  "ĠBEN": 2779,
  "ĠBIG": 2780,
  "ĠBOO": 2781,
  "ĠBOW": 2782,
  "ĠBOY": 2783,
  "ĠBRO": 2784,
  "ĠBUG": 2785,
  "ĠBUT": 2786,
  "ĠBaa": 2787,
  "ĠBab": 2788,
  "ĠBac": 2789,
  "ĠBad": 2790,
  "ĠBae": 2791,
  "ĠBag": 2792,
  "ĠBai": 2793,
  "ĠBal": 2794,
  "ĠBam": 2795,
  "ĠBao": 2796,
  "ĠBap": 2797,
  "ĠBar": 2798,
  "ĠBas": 2799,
  "ĠBat": 2800,
  "ĠBax": 2801,
  "ĠBay": 2802,
  "ĠBaz": 2803,
  "ĠBea": 2804,
  "ĠBec": 2805,
  "ĠBed": 2806,
  "ĠBee": 2807,
  "ĠBeh": 2808,
  "ĠBel": 2809,
  "ĠBen": 2810,
  "ĠBet": 2811,
  "ĠBex": 2812,
  "ĠBig": 2813,
  "ĠBim": 2814,
  "ĠBin": 2815,
  "ĠBip": 2816,
  "ĠBit": 2817,
  "ĠBix": 2818,
  "ĠBlo": 2819,
  "ĠBlu": 2820,
  "ĠBly": 2821,
  "ĠBob": 2822,
  "ĠBoh": 2823,
  "ĠBom": 2824,
  "ĠBon": 2825,
  "ĠBoo": 2826,
  "ĠBop": 2827,
  "ĠBot": 2828,
  "ĠBow": 2829,
  "ĠBox": 2830,
  "ĠBoy": 2831,
  "ĠBri": 2832,
  "ĠBro": 2833,
  "ĠBrr": 2834,
  "ĠBru": 2835,
  "ĠBry": 2836,
  "ĠBub": 2837,
  "ĠBud": 2838,
  "ĠBug": 2839,
  "ĠBuh": 2840,
  "ĠBum": 2841,
  "ĠBun": 2842,
  "ĠBur": 2843,
  "ĠBus": 2844,
  "ĠBut": 2845,
  "ĠBuy": 2846,
  "ĠBye": 2847,
  "ĠBzz": 2848,
  "ĠCAN": 2849,
  "ĠCAT": 2850,
  "ĠCAW": 2851,
  "ĠCDs": 2852,
  "ĠCOM": 2853,
  "ĠCPR": 2854,
  "ĠCai": 2855,
  "ĠCal": 2856,
  "ĠCam": 2857,
  "ĠCan": 2858,
  "ĠCap": 2859,
  "ĠCar": 2860,
  "ĠCas": 2861,
  "ĠCat": 2862,
  "ĠCaw": 2863,
  "ĠCax": 2864,
  "ĠCee": 2865,
  "ĠCel": 2866,
  "ĠCha": 2867,
  "ĠChi": 2868,
  "ĠClo": 2869,
  "ĠCog": 2870,
  "ĠCon": 2871,
  "ĠCoo": 2872,
  "ĠCop": 2873,
  "ĠCow": 2874,
  "ĠCry": 2875,
  "ĠCub": 2876,
  "ĠCup": 2877,
  "ĠCut": 2878,
  "ĠDAD": 2879,
  "ĠDAY": 2880,
  "ĠDID": 2881,
  "ĠDIY": 2882,
  "ĠDMV": 2883,
  "ĠDOG": 2884,
  "ĠDON": 2885,
  "ĠDVD": 2886,
  "ĠDVR": 2887,
  "ĠDab": 2888,
  "ĠDad": 2889,
  "ĠDai": 2890,
  "ĠDal": 2891,
  "ĠDan": 2892,
  "ĠDat": 2893,
  "ĠDax": 2894,
  "ĠDay": 2895,
  "ĠDaz": 2896,
  "ĠDeb": 2897,
  "ĠDee": 2898,
  "ĠDel": 2899,
  "ĠDen": 2900,
  "ĠDes": 2901,
  "ĠDew": 2902,
  "ĠDex": 2903,
  "ĠDia": 2904,
  "ĠDic": 2905,
  "ĠDid": 2906,
  "ĠDig": 2907,
  "ĠDin": 2908,
  "ĠDip": 2909,
  "ĠDoc": 2910,
  "ĠDoe": 2911,
  "ĠDog": 2912,
  "ĠDom": 2913,
  "ĠDon": 2914,
  "ĠDoo": 2915,
  "ĠDop": 2916,
  "ĠDor": 2917,
  "ĠDot": 2918,
  "ĠDry": 2919,
  "ĠDub": 2920,
  "ĠDue": 2921,
  "ĠDug": 2922,
  "ĠDuo": 2923,
  "ĠEAT": 2924,
  "ĠERR": 2925,
  "ĠEYE": 2926,
  "ĠEar": 2927,
  "ĠEat": 2928,
  "ĠEdi": 2929,
  "ĠEee": 2930,
  "ĠEek": 2931,
  "ĠEgg": 2932,
  "ĠEla": 2933,
  "ĠEle": 2934,
  "ĠElf": 2935,
  "ĠEli": 2936,
  "ĠEll": 2937,
  "ĠElm": 2938,
  "ĠElp": 2939,
  "ĠElu": 2940,
  "ĠEly": 2941,
  "ĠEma": 2942,
  "ĠEmi": 2943,
  "ĠEmu": 2944,
  "ĠEmy": 2945,
  "ĠEnd": 2946,
  "ĠEsm": 2947,
  "ĠEsy": 2948,
  "ĠEva": 2949,
  "ĠEve": 2950,
  "ĠEww": 2951,
  "ĠExy": 2952,
  "ĠEye": 2953,
  "ĠFAN": 2954,
  "ĠFFF": 2955,
  "ĠFIT": 2956,
  "ĠFLY": 2957,
  "ĠFOR": 2958,
  "ĠFRI": 2959,
  "ĠFUN": 2960,
  "ĠFab": 2961,
  "ĠFae": 2962,
  "ĠFan": 2963,
  "ĠFap": 2964,
  "ĠFar": 2965,
  "ĠFat": 2966,
  "ĠFau": 2967,
  "ĠFax": 2968,
  "ĠFay": 2969,
  "ĠFaz": 2970,
  "ĠFee": 2971,
  "ĠFei": 2972,
  "ĠFia": 2973,
  "ĠFig": 2974,
  "ĠFil": 2975,
  "ĠFin": 2976,
  "ĠFip": 2977,
  "ĠFir": 2978,
  "ĠFit": 2979,
  "ĠFix": 2980,
  "ĠFlo": 2981,
  "ĠFly": 2982,
  "ĠFog": 2983,
  "ĠFoo": 2984,
  "ĠFor": 2985,
  "ĠFox": 2986,
  "ĠFoy": 2987,
  "ĠFoz": 2988,
  "ĠFro": 2989,
  "ĠFry": 2990,
  "ĠFuh": 2991,
  "ĠFun": 2992,
  "ĠFur": 2993,
  "ĠGAS": 2994,
  "ĠGET": 2995,
  "ĠGOD": 2996,
  "ĠGPS": 2997,
  "ĠGal": 2998,
  "ĠGap": 2999,
  "ĠGar": 3000,
  "ĠGas": 3001,
  "ĠGee": 3002,
  "ĠGem": 3003,
  "ĠGeo": 3004,
  "ĠGet": 3005,
  "ĠGia": 3006,
  "ĠGil": 3007,
  "ĠGin": 3008,
  "ĠGio": 3009,
  "ĠGlo": 3010,
  "ĠGod": 3011,
  "ĠGog": 3012,
  "ĠGoo": 3013,
  "ĠGor": 3014,
  "ĠGot": 3015,
  "ĠGra": 3016,
  "ĠGrr": 3017,
  "ĠGui": 3018,
  "ĠGum": 3019,
  "ĠGun": 3020,
  "ĠGus": 3021,
  "ĠGuy": 3022,
  "ĠGym": 3023,
  "ĠHAD": 3024,
  "ĠHAT": 3025,
  "ĠHER": 3026,
  "ĠHIM": 3027,
  "ĠHIS": 3028,
  "ĠHIs": 3029,
  "ĠHOT": 3030,
  "ĠHOW": 3031,
  "ĠHUG": 3032,
  "ĠHad": 3033,
  "ĠHal": 3034,
  "ĠHam": 3035,
  "ĠHan": 3036,
  "ĠHao": 3037,
  "ĠHap": 3038,
  "ĠHas": 3039,
  "ĠHat": 3040,
  "ĠHay": 3041,
  "ĠHee": 3042,
  "ĠHeh": 3043,
  "ĠHel": 3044,
  "ĠHen": 3045,
  "ĠHer": 3046,
  "ĠHey": 3047,
  "ĠHia": 3048,
  "ĠHie": 3049,
  "ĠHim": 3050,
  "ĠHip": 3051,
  "ĠHis": 3052,
  "ĠHit": 3053,
  "ĠHmm": 3054,
  "ĠHog": 3055,
  "ĠHoo": 3056,
  "ĠHop": 3057,
  "ĠHot": 3058,
  "ĠHow": 3059,
  "ĠHug": 3060,
  "ĠHuh": 3061,
  "ĠHum": 3062,
  "ĠHut": 3063,
  "ĠICE": 3064,
  "ĠIDs": 3065,
  "ĠIan": 3066,
  "ĠIce": 3067,
  "ĠIcy": 3068,
  "ĠIda": 3069,
  "ĠIfe": 3070,
  "ĠIke": 3071,
  "ĠIla": 3072,
  "ĠIlu": 3073,
  "ĠIma": 3074,
  "ĠImi": 3075,
  "ĠIna": 3076,
  "ĠInk": 3077,
  "ĠInn": 3078,
  "ĠIra": 3079,
  "ĠIsh": 3080,
  "ĠIsn": 3081,
  "ĠIsy": 3082,
  "ĠIts": 3083,
  "ĠIvy": 3084,
  "ĠIza": 3085,
  "ĠJAM": 3086,
  "ĠJIM": 3087,
  "ĠJOE": 3088,
  "ĠJac": 3089,
  "ĠJai": 3090,
  "ĠJak": 3091,
  "ĠJam": 3092,
  "ĠJan": 3093,
  "ĠJar": 3094,
  "ĠJas": 3095,
  "ĠJax": 3096,
  "ĠJay": 3097,
  "ĠJaz": 3098,
  "ĠJeb": 3099,
  "ĠJed": 3100,
  "ĠJee": 3101,
  "ĠJef": 3102,
  "ĠJem": 3103,
  "ĠJen": 3104,
  "ĠJet": 3105,
  "ĠJez": 3106,
  "ĠJia": 3107,
  "ĠJib": 3108,
  "ĠJil": 3109,
  "ĠJim": 3110,
  "ĠJin": 3111,
  "ĠJio": 3112,
  "ĠJip": 3113,
  "ĠJob": 3114,
  "ĠJoe": 3115,
  "ĠJog": 3116,
  "ĠJom": 3117,
  "ĠJon": 3118,
  "ĠJoo": 3119,
  "ĠJor": 3120,
  "ĠJos": 3121,
  "ĠJoy": 3122,
  "ĠJub": 3123,
  "ĠJud": 3124,
  "ĠJug": 3125,
  "ĠJun": 3126,
  "ĠKEY": 3127,
  "ĠKae": 3128,
  "ĠKai": 3129,
  "ĠKat": 3130,
  "ĠKax": 3131,
  "ĠKay": 3132,
  "ĠKeb": 3133,
  "ĠKel": 3134,
  "ĠKen": 3135,
  "ĠKeo": 3136,
  "ĠKev": 3137,
  "ĠKey": 3138,
  "ĠKia": 3139,
  "ĠKid": 3140,
  "ĠKim": 3141,
  "ĠKio": 3142,
  "ĠKip": 3143,
  "ĠKit": 3144,
  "ĠKya": 3145,
  "ĠKym": 3146,
  "ĠKzz": 3147,
  "ĠLCD": 3148,
  "ĠLED": 3149,
  "ĠLET": 3150,
  "ĠLIz": 3151,
  "ĠLOT": 3152,
  "ĠLab": 3153,
  "ĠLad": 3154,
  "ĠLai": 3155,
  "ĠLam": 3156,
  "ĠLan": 3157,
  "ĠLao": 3158,
  "ĠLap": 3159,
  "ĠLaw": 3160,
  "ĠLay": 3161,
  "ĠLea": 3162,
  "ĠLee": 3163,
  "ĠLeg": 3164,
  "ĠLen": 3165,
  "ĠLeo": 3166,
  "ĠLes": 3167,
  "ĠLet": 3168,
  "ĠLew": 3169,
  "ĠLex": 3170,
  "ĠLia": 3171,
  "ĠLie": 3172,
  "ĠLif": 3173,
  "ĠLil": 3174,
  "ĠLin": 3175,
  "ĠLip": 3176,
  "ĠLis": 3177,
  "ĠLiv": 3178,
  "ĠLiz": 3179,
  "ĠLog": 3180,
  "ĠLon": 3181,
  "ĠLos": 3182,
  "ĠLot": 3183,
  "ĠLou": 3184,
  "ĠLow": 3185,
  "ĠLua": 3186,
  "ĠLuc": 3187,
  "ĠLui": 3188,
  "ĠLux": 3189,
  "ĠLuz": 3190,
  "ĠLyn": 3191,
  "ĠMAT": 3192,
  "ĠMAX": 3193,
  "ĠMIA": 3194,
  "ĠMMM": 3195,
  "ĠMOM": 3196,
  "ĠMOO": 3197,
  "ĠMUD": 3198,
  "ĠMUM": 3199,
  "ĠMVP": 3200,
  "ĠMaa": 3201,
  "ĠMac": 3202,
  "ĠMad": 3203,
  "ĠMae": 3204,
  "ĠMag": 3205,
  "ĠMah": 3206,
  "ĠMai": 3207,
  "ĠMal": 3208,
  "ĠMam": 3209,
  "ĠMan": 3210,
  "ĠMap": 3211,
  "ĠMat": 3212,
  "ĠMav": 3213,
  "ĠMax": 3214,
  "ĠMay": 3215,
  "ĠMea": 3216,
  "ĠMee": 3217,
  "ĠMeg": 3218,
  "ĠMei": 3219,
  "ĠMel": 3220,
  "ĠMen": 3221,
  "ĠMet": 3222,
  "ĠMew": 3223,
  "ĠMia": 3224,
  "ĠMic": 3225,
  "ĠMid": 3226,
  "ĠMie": 3227,
  "ĠMim": 3228,
  "ĠMin": 3229,
  "ĠMip": 3230,
  "ĠMis": 3231,
  "ĠMit": 3232,
  "ĠMix": 3233,
  "ĠMmm": 3234,
  "ĠMmy": 3235,
  "ĠMoe": 3236,
  "ĠMom": 3237,
  "ĠMon": 3238,
  "ĠMoo": 3239,
  "ĠMop": 3240,
  "ĠMow": 3241,
  "ĠMoz": 3242,
  "ĠMrs": 3243,
  "ĠMud": 3244,
  "ĠMuf": 3245,
  "ĠMug": 3246,
  "ĠMuh": 3247,
  "ĠMum": 3248,
  "ĠMya": 3249,
  "ĠNOT": 3250,
  "ĠNOW": 3251,
  "ĠNan": 3252,
  "ĠNap": 3253,
  "ĠNat": 3254,
  "ĠNay": 3255,
  "ĠNed": 3256,
  "ĠNee": 3257,
  "ĠNel": 3258,
  "ĠNeo": 3259,
  "ĠNet": 3260,
  "ĠNew": 3261,
  "ĠNia": 3262,
  "ĠNic": 3263,
  "ĠNik": 3264,
  "ĠNin": 3265,
  "ĠNip": 3266,
  "ĠNix": 3267,
  "ĠNoa": 3268,
  "ĠNod": 3269,
  "ĠNom": 3270,
  "ĠNoo": 3271,
  "ĠNot": 3272,
  "ĠNow": 3273,
  "ĠNut": 3274,
  "ĠNya": 3275,
  "ĠOFF": 3276,
  "ĠONE": 3277,
  "ĠOUR": 3278,
  "ĠOUT": 3279,
  "ĠOWN": 3280,
  "ĠOak": 3281,
  "ĠOat": 3282,
  "ĠObi": 3283,
  "ĠObo": 3284,
  "ĠOby": 3285,
  "ĠOff": 3286,
  "ĠOhm": 3287,
  "ĠOil": 3288,
  "ĠOki": 3289,
  "ĠOla": 3290,
  "ĠOld": 3291,
  "ĠOli": 3292,
  "ĠOna": 3293,
  "ĠOne": 3294,
  "ĠOni": 3295,
  "ĠOof": 3296,
  "ĠOoh": 3297,
  "ĠOok": 3298,
  "ĠOon": 3299,
  "ĠOoo": 3300,
  "ĠOur": 3301,
  "ĠOut": 3302,
  "ĠOwl": 3303,
  "ĠOwn": 3304,
  "ĠOxy": 3305,
  "ĠPET": 3306,
  "ĠPEW": 3307,
  "ĠPIG": 3308,
  "ĠPJs": 3309,
  "ĠPOP": 3310,
  "ĠPad": 3311,
  "ĠPal": 3312,
  "ĠPam": 3313,
  "ĠPan": 3314,
  "ĠPao": 3315,
  "ĠPap": 3316,
  "ĠPat": 3317,
  "ĠPau": 3318,
  "ĠPaw": 3319,
  "ĠPax": 3320,
  "ĠPay": 3321,
  "ĠPea": 3322,
  "ĠPee": 3323,
  "ĠPeg": 3324,
  "ĠPen": 3325,
  "ĠPep": 3326,
  "ĠPer": 3327,
  "ĠPet": 3328,
  "ĠPew": 3329,
  "ĠPhy": 3330,
  "ĠPia": 3331,
  "ĠPie": 3332,
  "ĠPig": 3333,
  "ĠPin": 3334,
  "ĠPio": 3335,
  "ĠPip": 3336,
  "ĠPit": 3337,
  "ĠPob": 3338,
  "ĠPok": 3339,
  "ĠPol": 3340,
  "ĠPoo": 3341,
  "ĠPop": 3342,
  "ĠPot": 3343,
  "ĠPow": 3344,
  "ĠPre": 3345,
  "ĠPru": 3346,
  "ĠPug": 3347,
  "ĠPuh": 3348,
  "ĠPum": 3349,
  "ĠPup": 3350,
  "ĠPut": 3351,
  "ĠQin": 3352,
  "ĠRED": 3353,
  "ĠRIP": 3354,
  "ĠRUN": 3355,
  "ĠRad": 3356,
  "ĠRae": 3357,
  "ĠRag": 3358,
  "ĠRaj": 3359,
  "ĠRam": 3360,
  "ĠRan": 3361,
  "ĠRat": 3362,
  "ĠRaw": 3363,
  "ĠRax": 3364,
  "ĠRay": 3365,
  "ĠRaz": 3366,
  "ĠRea": 3367,
  "ĠRed": 3368,
  "ĠReg": 3369,
  "ĠRen": 3370,
  "ĠRex": 3371,
  "ĠRey": 3372,
  "ĠRia": 3373,
  "ĠRic": 3374,
  "ĠRik": 3375,
  "ĠRil": 3376,
  "ĠRin": 3377,
  "ĠRio": 3378,
  "ĠRip": 3379,
  "ĠRix": 3380,
  "ĠRiz": 3381,
  "ĠRob": 3382,
  "ĠRod": 3383,
  "ĠRog": 3384,
  "ĠRon": 3385,
  "ĠRoo": 3386,
  "ĠRop": 3387,
  "ĠRot": 3388,
  "ĠRou": 3389,
  "ĠRow": 3390,
  "ĠRoy": 3391,
  "ĠRoz": 3392,
  "ĠRub": 3393,
  "ĠRue": 3394,
  "ĠRug": 3395,
  "ĠRun": 3396,
  "ĠRup": 3397,
  "ĠRux": 3398,
  "ĠRya": 3399,
  "ĠSAD": 3400,
  "ĠSAM": 3401,
  "ĠSHe": 3402,
  "ĠSIR": 3403,
  "ĠSOS": 3404,
  "ĠSUV": 3405,
  "ĠSad": 3406,
  "ĠSal": 3407,
  "ĠSam": 3408,
  "ĠSan": 3409,
  "ĠSar": 3410,
  "ĠSat": 3411,
  "ĠSav": 3412,
  "ĠSaw": 3413,
  "ĠSay": 3414,
  "ĠSea": 3415,
  "ĠSeb": 3416,
  "ĠSee": 3417,
  "ĠSet": 3418,
  "ĠSew": 3419,
  "ĠSgt": 3420,
  "ĠShe": 3421,
  "ĠShh": 3422,
  "ĠShi": 3423,
  "ĠShu": 3424,
  "ĠShy": 3425,
  "ĠSia": 3426,
  "ĠSid": 3427,
  "ĠSim": 3428,
  "ĠSir": 3429,
  "ĠSis": 3430,
  "ĠSit": 3431,
  "ĠSix": 3432,
  "ĠSky": 3433,
  "ĠSlo": 3434,
  "ĠSly": 3435,
  "ĠSmi": 3436,
  "ĠSol": 3437,
  "ĠSon": 3438,
  "ĠSox": 3439,
  "ĠSoy": 3440,
  "ĠSpa": 3441,
  "ĠSpy": 3442,
  "ĠSss": 3443,
  "ĠStu": 3444,
  "ĠSue": 3445,
  "ĠSum": 3446,
  "ĠSun": 3447,
  "ĠSus": 3448,
  "ĠSyd": 3449,
  "ĠSzz": 3450,
  "ĠTEA": 3451,
  "ĠTEN": 3452,
  "ĠTHE": 3453,
  "ĠTIK": 3454,
  "ĠTIM": 3455,
  "ĠTLC": 3456,
  "ĠTOM": 3457,
  "ĠTOO": 3458,
  "ĠTOY": 3459,
  "ĠTRY": 3460,
  "ĠTVs": 3461,
  "ĠTWO": 3462,
  "ĠTac": 3463,
  "ĠTad": 3464,
  "ĠTag": 3465,
  "ĠTaj": 3466,
  "ĠTak": 3467,
  "ĠTal": 3468,
  "ĠTam": 3469,
  "ĠTan": 3470,
  "ĠTap": 3471,
  "ĠTar": 3472,
  "ĠTas": 3473,
  "ĠTau": 3474,
  "ĠTay": 3475,
  "ĠTaz": 3476,
  "ĠTbe": 3477,
  "ĠTea": 3478,
  "ĠTed": 3479,
  "ĠTee": 3480,
  "ĠTen": 3481,
  "ĠTeo": 3482,
  "ĠTep": 3483,
  "ĠThe": 3484,
  "ĠTia": 3485,
  "ĠTic": 3486,
  "ĠTie": 3487,
  "ĠTig": 3488,
  "ĠTik": 3489,
  "ĠTim": 3490,
  "ĠTin": 3491,
  "ĠTip": 3492,
  "ĠTiy": 3493,
  "ĠTod": 3494,
  "ĠToe": 3495,
  "ĠTog": 3496,
  "ĠTom": 3497,
  "ĠTon": 3498,
  "ĠToo": 3499,
  "ĠTop": 3500,
  "ĠTor": 3501,
  "ĠTot": 3502,
  "ĠTow": 3503,
  "ĠToy": 3504,
  "ĠTri": 3505,
  "ĠTry": 3506,
  "ĠTub": 3507,
  "ĠTuc": 3508,
  "ĠTug": 3509,
  "ĠTui": 3510,
  "ĠTuk": 3511,
  "ĠTum": 3512,
  "ĠTun": 3513,
  "ĠTur": 3514,
  "ĠTux": 3515,
  "ĠTwo": 3516,
  "ĠTye": 3517,
  "ĠUFO": 3518,
  "ĠUPS": 3519,
  "ĠUSA": 3520,
  "ĠUSS": 3521,
  "ĠUgu": 3522,
  "ĠUma": 3523,
  "ĠUmi": 3524,
  "ĠUna": 3525,
  "ĠUni": 3526,
  "ĠUno": 3527,
  "ĠUps": 3528,
  "ĠUse": 3529,
  "ĠUsi": 3530,
  "ĠUtu": 3531,
  "ĠVCR": 3532,
  "ĠVHS": 3533,
  "ĠVIP": 3534,
  "ĠVPN": 3535,
  "ĠVal": 3536,
  "ĠVan": 3537,
  "ĠVee": 3538,
  "ĠVen": 3539,
  "ĠVet": 3540,
  "ĠVic": 3541,
  "ĠVik": 3542,
  "ĠViv": 3543,
  "ĠVol": 3544,
  "ĠWAS": 3545,
  "ĠWAY": 3546,
  "ĠWEE": 3547,
  "ĠWHO": 3548,
  "ĠWIN": 3549,
  "ĠWON": 3550,
  "ĠWOW": 3551,
  "ĠWaa": 3552,
  "ĠWag": 3553,
  "ĠWah": 3554,
  "ĠWar": 3555,
  "ĠWas": 3556,
  "ĠWax": 3557,
  "ĠWay": 3558,
  "ĠWeb": 3559,
  "ĠWee": 3560,
  "ĠWes": 3561,
  "ĠWet": 3562,
  "ĠWho": 3563,
  "ĠWhy": 3564,
  "ĠWid": 3565,
  "ĠWig": 3566,
  "ĠWil": 3567,
  "ĠWin": 3568,
  "ĠWon": 3569,
  "ĠWoo": 3570,
  "ĠWow": 3571,
  "ĠWuh": 3572,
  "ĠYAY": 3573,
  "ĠYES": 3574,
  "ĠYOU": 3575,
  "ĠYUM": 3576,
  "ĠYaw": 3577,
  "ĠYay": 3578,
  "ĠYea": 3579,
  "ĠYee": 3580,
  "ĠYep": 3581,
  "ĠYes": 3582,
  "ĠYet": 3583,
  "ĠYip": 3584,
  "ĠYoh": 3585,
  "ĠYoo": 3586,
  "ĠYou": 3587,
  "ĠYum": 3588,
  "ĠYur": 3589,
  "ĠYut": 3590,
  "ĠZAP": 3591,
  "ĠZIP": 3592,
  "ĠZOE": 3593,
  "ĠZOG": 3594,
  "ĠZOO": 3595,
  "ĠZac": 3596,
  "ĠZag": 3597,
  "ĠZak": 3598,
  "ĠZam": 3599,
  "ĠZap": 3600,
  "ĠZar": 3601,
  "ĠZaz": 3602,
  "ĠZeb": 3603,
  "ĠZed": 3604,
  "ĠZee": 3605,
  "ĠZen": 3606,
  "ĠZeo": 3607,
  "ĠZia": 3608,
  "ĠZib": 3609,
  "ĠZig": 3610,
  "ĠZim": 3611,
  "ĠZin": 3612,
  "ĠZip": 3613,
  "ĠZix": 3614,
  "ĠZiz": 3615,
  "ĠZoa": 3616,
  "ĠZob": 3617,
  "ĠZoe": 3618,
  "ĠZog": 3619,
  "ĠZoo": 3620,
  "ĠZop": 3621,
  "ĠZzz": 3622,
  "Ġaah": 3623,
  "Ġabd": 3624,
  "Ġace": 3625,
  "Ġach": 3626,
  "Ġact": 3627,
  "Ġada": 3628,
  "Ġadd": 3629,
  "Ġadm": 3630,
  "Ġado": 3631,
  "Ġads": 3632,
  "Ġaer": 3633,
  "Ġage": 3634,
  "Ġago": 3635,
  "Ġahh": 3636,
  "Ġaid": 3637,
  "Ġaim": 3638,
  "Ġain": 3639,
  "Ġair": 3640,
  "Ġala": 3641,
  "Ġale": 3642,
  "Ġall": 3643,
  "Ġamd": 3644,
  "Ġamy": 3645,
  "Ġand": 3646,
  "Ġane": 3647,
  "Ġanf": 3648,
  "Ġang": 3649,
  "Ġans": 3650,
  "Ġant": 3651,
  "Ġany": 3652,
  "Ġaof": 3653,
  "Ġape": 3654,
  "Ġapp": 3655,
  "Ġaqu": 3656,
  "Ġarc": 3657,
  "Ġare": 3658,
  "Ġarf": 3659,
  "Ġark": 3660,
  "Ġarm": 3661,
  "Ġarr": 3662,
  "Ġart": 3663,
  "Ġash": 3664,
  "Ġask": 3665,
  "Ġate": 3666,
  "Ġath": 3667,
  "Ġavo": 3668,
  "Ġawa": 3669,
  "Ġawe": 3670,
  "Ġaww": 3671,
  "Ġaxe": 3672,
  "Ġaye": 3673,
  "Ġbaa": 3674,
  "Ġbac": 3675,
  "Ġbad": 3676,
  "Ġbag": 3677,
  "Ġbam": 3678,
  "Ġban": 3679,
  "Ġbar": 3680,
  "Ġbat": 3681,
  "Ġbay": 3682,
  "Ġbed": 3683,
  "Ġbee": 3684,
  "Ġbeg": 3685,
  "Ġben": 3686,
  "Ġbet": 3687,
  "Ġbib": 3688,
  "Ġbid": 3689,
  "Ġbig": 3690,
  "Ġbin": 3691,
  "Ġbit": 3692,
  "Ġbla": 3693,
  "Ġblu": 3694,
  "Ġboa": 3695,
  "Ġbob": 3696,
  "Ġbog": 3697,
  "Ġbok": 3698,
  "Ġbon": 3699,
  "Ġboo": 3700,
  "Ġbop": 3701,
  "Ġbor": 3702,
  "Ġbow": 3703,
  "Ġbox": 3704,
  "Ġboy": 3705,
  "Ġbra": 3706,
  "Ġbro": 3707,
  "Ġbrr": 3708,
  "Ġbti": 3709,
  "Ġbub": 3710,
  "Ġbud": 3711,
  "Ġbug": 3712,
  "Ġbuh": 3713,
  "Ġbum": 3714,
  "Ġbun": 3715,
  "Ġbus": 3716,
  "Ġbut": 3717,
  "Ġbuy": 3718,
  "Ġbye": 3719,
  "Ġbzz": 3720,
  "Ġcab": 3721,
  "Ġcaf": 3722,
  "Ġcak": 3723,
  "Ġcal": 3724,
  "Ġcan": 3725,
  "Ġcap": 3726,
  "Ġcar": 3727,
  "Ġcat": 3728,
  "Ġcaw": 3729,
  "Ġcha": 3730,
  "Ġcle": 3731,
  "Ġcob": 3732,
  "Ġcod": 3733,
  "Ġcog": 3734,
  "Ġcon": 3735,
  "Ġcoo": 3736,
  "Ġcop": 3737,
  "Ġcos": 3738,
  "Ġcot": 3739,
  "Ġcow": 3740,
  "Ġcoy": 3741,
  "Ġcry": 3742,
  "Ġcsh": 3743,
  "Ġcub": 3744,
  "Ġcud": 3745,
  "Ġcue": 3746,
  "Ġcul": 3747,
  "Ġcup": 3748,
  "Ġcur": 3749,
  "Ġcut": 3750,
  "Ġdab": 3751,
  "Ġdad": 3752,
  "Ġdah": 3753,
  "Ġdai": 3754,
  "Ġdal": 3755,
  "Ġdam": 3756,
  "Ġdan": 3757,
  "Ġdat": 3758,
  "Ġday": 3759,
  "Ġdee": 3760,
  "Ġden": 3761,
  "Ġder": 3762,
  "Ġdes": 3763,
  "Ġdew": 3764,
  "Ġdia": 3765,
  "Ġdid": 3766,
  "Ġdie": 3767,
  "Ġdig": 3768,
  "Ġdim": 3769,
  "Ġdin": 3770,
  "Ġdip": 3771,
  "Ġdis": 3772,
  "Ġdoc": 3773,
  "Ġdoe": 3774,
  "Ġdof": 3775,
  "Ġdog": 3776,
  "Ġdoh": 3777,
  "Ġdol": 3778,
  "Ġdon": 3779,
  "Ġdoo": 3780,
  "Ġdor": 3781,
  "Ġdos": 3782,
  "Ġdot": 3783,
  "Ġdry": 3784,
  "Ġdud": 3785,
  "Ġdue": 3786,
  "Ġdug": 3787,
  "Ġduo": 3788,
  "Ġdye": 3789,
  "Ġdyn": 3790,
  "Ġear": 3791,
  "Ġeat": 3792,
  "Ġebb": 3793,
  "Ġeee": 3794,
  "Ġeek": 3795,
  "Ġeel": 3796,
  "Ġeep": 3797,
  "Ġege": 3798,
  "Ġegg": 3799,
  "Ġego": 3800,
  "Ġelf": 3801,
  "Ġelk": 3802,
  "Ġend": 3803,
  "Ġenv": 3804,
  "Ġeon": 3805,
  "Ġera": 3806,
  "Ġerr": 3807,
  "Ġese": 3808,
  "Ġest": 3809,
  "Ġetc": 3810,
  "Ġeve": 3811,
  "Ġevn": 3812,
  "Ġewe": 3813,
  "Ġeww": 3814,
  "Ġeye": 3815,
  "Ġfab": 3816,
  "Ġfam": 3817,
  "Ġfan": 3818,
  "Ġfar": 3819,
  "Ġfat": 3820,
  "Ġfax": 3821,
  "Ġfed": 3822,
  "Ġfee": 3823,
  "Ġfer": 3824,
  "Ġfew": 3825,
  "Ġfib": 3826,
  "Ġfig": 3827,
  "Ġfin": 3828,
  "Ġfir": 3829,
  "Ġfit": 3830,
  "Ġfix": 3831,
  "Ġfla": 3832,
  "Ġflu": 3833,
  "Ġfly": 3834,
  "Ġfoe": 3835,
  "Ġfog": 3836,
  "Ġfom": 3837,
  "Ġfor": 3838,
  "Ġfox": 3839,
  "Ġfro": 3840,
  "Ġfry": 3841,
  "Ġfsh": 3842,
  "Ġfun": 3843,
  "Ġfur": 3844,
  "Ġgaa": 3845,
  "Ġgab": 3846,
  "Ġgag": 3847,
  "Ġgah": 3848,
  "Ġgal": 3849,
  "Ġgap": 3850,
  "Ġgas": 3851,
  "Ġgay": 3852,
  "Ġgaz": 3853,
  "Ġgel": 3854,
  "Ġgem": 3855,
  "Ġget": 3856,
  "Ġgif": 3857,
  "Ġgig": 3858,
  "Ġgin": 3859,
  "Ġgip": 3860,
  "Ġgir": 3861,
  "Ġgod": 3862,
  "Ġgoo": 3863,
  "Ġgot": 3864,
  "Ġgre": 3865,
  "Ġgrr": 3866,
  "Ġgto": 3867,
  "Ġgum": 3868,
  "Ġgun": 3869,
  "Ġgut": 3870,
  "Ġguy": 3871,
  "Ġgym": 3872,
  "Ġhad": 3873,
  "Ġhae": 3874,
  "Ġhah": 3875,
  "Ġham": 3876,
  "Ġhan": 3877,
  "Ġhao": 3878,
  "Ġhar": 3879,
  "Ġhas": 3880,
  "Ġhat": 3881,
  "Ġhay": 3882,
  "Ġhee": 3883,
  "Ġheh": 3884,
  "Ġhem": 3885,
  "Ġhen": 3886,
  "Ġher": 3887,
  "Ġhet": 3888,
  "Ġhew": 3889,
  "Ġhey": 3890,
  "Ġhid": 3891,
  "Ġhie": 3892,
  "Ġhim": 3893,
  "Ġhip": 3894,
  "Ġhis": 3895,
  "Ġhit": 3896,
  "Ġhld": 3897,
  "Ġhmm": 3898,
  "Ġhob": 3899,
  "Ġhoe": 3900,
  "Ġhog": 3901,
  "Ġhon": 3902,
  "Ġhoo": 3903,
  "Ġhop": 3904,
  "Ġhor": 3905,
  "Ġhot": 3906,
  "Ġhow": 3907,
  "Ġhte": 3908,
  "Ġhue": 3909,
  "Ġhug": 3910,
  "Ġhuh": 3911,
  "Ġhum": 3912,
  "Ġhun": 3913,
  "Ġhup": 3914,
  "Ġhut": 3915,
  "Ġhve": 3916,
  "Ġicc": 3917,
  "Ġice": 3918,
  "Ġick": 3919,
  "Ġicy": 3920,
  "Ġies": 3921,
  "Ġill": 3922,
  "Ġimp": 3923,
  "Ġing": 3924,
  "Ġink": 3925,
  "Ġinn": 3926,
  "Ġins": 3927,
  "Ġint": 3928,
  "Ġion": 3929,
  "Ġisn": 3930,
  "Ġith": 3931,
  "Ġits": 3932,
  "Ġiup": 3933,
  "Ġivy": 3934,
  "Ġjab": 3935,
  "Ġjam": 3936,
  "Ġjar": 3937,
  "Ġjaw": 3938,
  "Ġjay": 3939,
  "Ġjet": 3940,
  "Ġjig": 3941,
  "Ġjob": 3942,
  "Ġjoe": 3943,
  "Ġjog": 3944,
  "Ġjot": 3945,
  "Ġjoy": 3946,
  "Ġjub": 3947,
  "Ġjug": 3948,
  "Ġjum": 3949,
  "Ġjus": 3950,
  "Ġkaw": 3951,
  "Ġkey": 3952,
  "Ġkid": 3953,
  "Ġkin": 3954,
  "Ġkit": 3955,
  "Ġkoi": 3956,
  "Ġkow": 3957,
  "Ġkuh": 3958,
  "Ġlab": 3959,
  "Ġlad": 3960,
  "Ġlag": 3961,
  "Ġlam": 3962,
  "Ġlap": 3963,
  "Ġlaw": 3964,
  "Ġlay": 3965,
  "Ġlbs": 3966,
  "Ġled": 3967,
  "Ġlee": 3968,
  "Ġleg": 3969,
  "Ġles": 3970,
  "Ġlet": 3971,
  "Ġley": 3972,
  "Ġlft": 3973,
  "Ġlid": 3974,
  "Ġlie": 3975,
  "Ġlil": 3976,
  "Ġlim": 3977,
  "Ġlip": 3978,
  "Ġlit": 3979,
  "Ġlog": 3980,
  "Ġlop": 3981,
  "Ġlos": 3982,
  "Ġlot": 3983,
  "Ġlou": 3984,
  "Ġlow": 3985,
  "Ġlug": 3986,
  "Ġluh": 3987,
  "Ġlye": 3988,
  "Ġmaa": 3989,
  "Ġmac": 3990,
  "Ġmad": 3991,
  "Ġmag": 3992,
  "Ġmah": 3993,
  "Ġmam": 3994,
  "Ġman": 3995,
  "Ġmap": 3996,
  "Ġmar": 3997,
  "Ġmat": 3998,
  "Ġmax": 3999,
  "Ġmay": 4000,
  "Ġmed": 4001,
  "Ġmee": 4002,
  "Ġmeh": 4003,
  "Ġmei": 4004,
  "Ġmel": 4005,
  "Ġmen": 4006,
  "Ġmes": 4007,
  "Ġmet": 4008,
  "Ġmew": 4009,
  "Ġmic": 4010,
  "Ġmid": 4011,
  "Ġmil": 4012,
  "Ġmix": 4013,
  "Ġmke": 4014,
  "Ġmmm": 4015,
  "Ġmob": 4016,
  "Ġmom": 4017,
  "Ġmoo": 4018,
  "Ġmop": 4019,
  "Ġmot": 4020,
  "Ġmow": 4021,
  "Ġmph": 4022,
  "Ġmud": 4023,
  "Ġmug": 4024,
  "Ġmum": 4025,
  "Ġmus": 4026,
  "Ġmuy": 4027,
  "Ġnab": 4028,
  "Ġnag": 4029,
  "Ġnan": 4030,
  "Ġnap": 4031,
  "Ġnaw": 4032,
  "Ġnay": 4033,
  "Ġnec": 4034,
  "Ġnee": 4035,
  "Ġneh": 4036,
  "Ġnet": 4037,
  "Ġnew": 4038,
  "Ġnip": 4039,
  "Ġnis": 4040,
  "Ġnnn": 4041,
  "Ġnob": 4042,
  "Ġnod": 4043,
  "Ġnom": 4044,
  "Ġnon": 4045,
  "Ġnor": 4046,
  "Ġnos": 4047,
  "Ġnot": 4048,
  "Ġnow": 4049,
  "Ġnub": 4050,
  "Ġnun": 4051,
  "Ġnut": 4052,
  "Ġoak": 4053,
  "Ġoar": 4054,
  "Ġoat": 4055,
  "Ġodd": 4056,
  "Ġoff": 4057,
  "Ġoil": 4058,
  "Ġold": 4059,
  "Ġole": 4060,
  "Ġone": 4061,
  "Ġoof": 4062,
  "Ġooh": 4063,
  "Ġook": 4064,
  "Ġooo": 4065,
  "Ġope": 4066,
  "Ġopt": 4067,
  "Ġora": 4068,
  "Ġorb": 4069,
  "Ġore": 4070,
  "Ġour": 4071,
  "Ġout": 4072,
  "Ġowe": 4073,
  "Ġowl": 4074,
  "Ġown": 4075,
  "Ġows": 4076,
  "Ġpad": 4077,
  "Ġpal": 4078,
  "Ġpam": 4079,
  "Ġpan": 4080,
  "Ġpao": 4081,
  "Ġpap": 4082,
  "Ġpar": 4083,
  "Ġpat": 4084,
  "Ġpaw": 4085,
  "Ġpay": 4086,
  "Ġpaz": 4087,
  "Ġpea": 4088,
  "Ġpee": 4089,
  "Ġpeg": 4090,
  "Ġpen": 4091,
  "Ġpep": 4092,
  "Ġper": 4093,
  "Ġpet": 4094,
  "Ġpew": 4095,
  "Ġpic": 4096,
  "Ġpie": 4097,
  "Ġpig": 4098,
  "Ġpin": 4099,
  "Ġpit": 4100,
  "Ġpjs": 4101,
  "Ġpla": 4102,
  "Ġpli": 4103,
  "ĠpoT": 4104,
  "Ġpod": 4105,
  "Ġpoi": 4106,
  "Ġpom": 4107,
  "Ġpoo": 4108,
  "Ġpop": 4109,
  "Ġpot": 4110,
  "Ġpow": 4111,
  "Ġpox": 4112,
  "Ġpre": 4113,
  "Ġpro": 4114,
  "Ġpry": 4115,
  "Ġpub": 4116,
  "Ġpug": 4117,
  "Ġpun": 4118,
  "Ġpup": 4119,
  "Ġpur": 4120,
  "Ġpus": 4121,
  "Ġput": 4122,
  "Ġque": 4123,
  "Ġqux": 4124,
  "Ġquz": 4125,
  "Ġrac": 4126,
  "Ġrag": 4127,
  "Ġram": 4128,
  "Ġran": 4129,
  "Ġrap": 4130,
  "Ġras": 4131,
  "Ġrat": 4132,
  "Ġraw": 4133,
  "Ġray": 4134,
  "Ġred": 4135,
  "Ġrev": 4136,
  "Ġrex": 4137,
  "Ġria": 4138,
  "Ġrib": 4139,
  "Ġrid": 4140,
  "Ġrig": 4141,
  "Ġrim": 4142,
  "Ġrip": 4143,
  "Ġrob": 4144,
  "Ġrod": 4145,
  "Ġron": 4146,
  "Ġroo": 4147,
  "Ġrot": 4148,
  "Ġrow": 4149,
  "Ġrrr": 4150,
  "Ġrub": 4151,
  "Ġrug": 4152,
  "Ġrum": 4153,
  "Ġrun": 4154,
  "Ġrut": 4155,
  "Ġrye": 4156,
  "ĠsHe": 4157,
  "Ġsad": 4158,
  "Ġsag": 4159,
  "Ġsah": 4160,
  "Ġsai": 4161,
  "Ġsal": 4162,
  "Ġsam": 4163,
  "Ġsap": 4164,
  "Ġsat": 4165,
  "Ġsaw": 4166,
  "Ġsax": 4167,
  "Ġsay": 4168,
  "Ġsde": 4169,
  "Ġsea": 4170,
  "Ġsec": 4171,
  "Ġsee": 4172,
  "Ġsep": 4173,
  "Ġser": 4174,
  "Ġset": 4175,
  "Ġsev": 4176,
  "Ġsew": 4177,
  "Ġshe": 4178,
  "Ġshh": 4179,
  "Ġsho": 4180,
  "Ġshy": 4181,
  "Ġsic": 4182,
  "Ġsin": 4183,
  "Ġsip": 4184,
  "Ġsir": 4185,
  "Ġsis": 4186,
  "Ġsit": 4187,
  "Ġsix": 4188,
  "Ġski": 4189,
  "Ġsky": 4190,
  "Ġslo": 4191,
  "Ġsly": 4192,
  "Ġsma": 4193,
  "Ġsmi": 4194,
  "Ġsob": 4195,
  "Ġsof": 4196,
  "Ġsol": 4197,
  "Ġson": 4198,
  "Ġsoo": 4199,
  "Ġsop": 4200,
  "Ġsot": 4201,
  "Ġsow": 4202,
  "Ġsoy": 4203,
  "Ġspa": 4204,
  "Ġspe": 4205,
  "Ġspi": 4206,
  "Ġspy": 4207,
  "Ġsss": 4208,
  "Ġstu": 4209,
  "Ġsty": 4210,
  "Ġsue": 4211,
  "Ġsuf": 4212,
  "Ġsum": 4213,
  "Ġsun": 4214,
  "Ġswe": 4215,
  "Ġtab": 4216,
  "Ġtac": 4217,
  "Ġtad": 4218,
  "Ġtag": 4219,
  "Ġtan": 4220,
  "Ġtap": 4221,
  "Ġtar": 4222,
  "Ġtat": 4223,
  "Ġtax": 4224,
  "Ġtea": 4225,
  "Ġted": 4226,
  "Ġtee": 4227,
  "Ġteh": 4228,
  "Ġten": 4229,
  "Ġter": 4230,
  "Ġthe": 4231,
  "Ġthr": 4232,
  "Ġths": 4233,
  "Ġthy": 4234,
  "Ġtic": 4235,
  "Ġtie": 4236,
  "Ġtil": 4237,
  "Ġtim": 4238,
  "Ġtin": 4239,
  "Ġtip": 4240,
  "Ġtit": 4241,
  "Ġtlc": 4242,
  "Ġtoa": 4243,
  "Ġtob": 4244,
  "Ġtoe": 4245,
  "Ġtoh": 4246,
  "Ġtoi": 4247,
  "Ġtom": 4248,
  "Ġton": 4249,
  "Ġtoo": 4250,
  "Ġtop": 4251,
  "Ġtos": 4252,
  "Ġtot": 4253,
  "Ġtou": 4254,
  "Ġtow": 4255,
  "Ġtoy": 4256,
  "Ġtre": 4257,
  "Ġtry": 4258,
  "Ġtub": 4259,
  "Ġtug": 4260,
  "Ġtul": 4261,
  "Ġtum": 4262,
  "Ġtun": 4263,
  "Ġtwo": 4264,
  "Ġtzu": 4265,
  "Ġuch": 4266,
  "Ġucy": 4267,
  "Ġugh": 4268,
  "Ġull": 4269,
  "Ġumm": 4270,
  "Ġuni": 4271,
  "Ġuno": 4272,
  "Ġunp": 4273,
  "Ġuoy": 4274,
  "Ġups": 4275,
  "Ġurr": 4276,
  "Ġuse": 4277,
  "Ġvan": 4278,
  "Ġvat": 4279,
  "Ġveg": 4280,
  "Ġver": 4281,
  "Ġvet": 4282,
  "Ġvey": 4283,
  "Ġvia": 4284,
  "Ġvoc": 4285,
  "Ġvow": 4286,
  "Ġvum": 4287,
  "Ġwaa": 4288,
  "Ġwad": 4289,
  "Ġwag": 4290,
  "Ġwah": 4291,
  "Ġwan": 4292,
  "Ġwar": 4293,
  "Ġwas": 4294,
  "Ġwax": 4295,
  "Ġway": 4296,
  "Ġweb": 4297,
  "Ġwed": 4298,
  "Ġwee": 4299,
  "Ġwel": 4300,
  "Ġwen": 4301,
  "Ġweo": 4302,
  "Ġwep": 4303,
  "Ġwer": 4304,
  "Ġwet": 4305,
  "Ġwhe": 4306,
  "Ġwho": 4307,
  "Ġwhy": 4308,
  "Ġwig": 4309,
  "Ġwim": 4310,
  "Ġwin": 4311,
  "Ġwit": 4312,
  "Ġwoe": 4313,
  "Ġwok": 4314,
  "Ġwon": 4315,
  "Ġwoo": 4316,
  "Ġwow": 4317,
  "Ġwub": 4318,
  "Ġwuh": 4319,
  "Ġwuv": 4320,
  "Ġxie": 4321,
  "Ġyak": 4322,
  "Ġyam": 4323,
  "Ġyap": 4324,
  "Ġyar": 4325,
  "Ġyaw": 4326,
  "Ġyay": 4327,
  "Ġyea": 4328,
  "Ġyed": 4329,
  "Ġyee": 4330,
  "Ġyer": 4331,
  "Ġyes": 4332,
  "Ġyet": 4333,
  "Ġyew": 4334,
  "Ġyin": 4335,
  "Ġyip": 4336,
  "ĠyoU": 4337,
  "Ġyou": 4338,
  "Ġyrs": 4339,
  "Ġyum": 4340,
  "Ġzag": 4341,
  "Ġzam": 4342,
  "Ġzap": 4343,
  "Ġzee": 4344,
  "Ġzig": 4345,
  "Ġzim": 4346,
  "Ġzip": 4347,
  "Ġzog": 4348,
  "Ġzom": 4349,
  "Ġzoo": 4350,
  "Ġzop": 4351,
  "Ġzup": 4352,
  "Ġzzz": 4353,
  "ĠâĢĭ": 4354,
  "ĠâĢĲ": 4355,
  "ĠâĢĵ": 4356,
  "ĠâĢĶ": 4357,
  "ĠâĢķ": 4358,
  "ĠâĢĺ": 4359,
  "ĠâĢĻ": 4360,
  "ĠâĢľ": 4361,
  "ĠâĢĿ": 4362,
  "ĠâĢŀ": 4363,
  "ĠâĢ¦": 4364,
  "ĠîĢĢ": 4365,
  "ĠïģĬ": 4366,
  "!!!\"": 4367,
  "!!\",": 4368,
  "!!\".": 4369,
  "!\"'.": 4370,
  "!\"*.": 4371,
  "!'\",": 4372,
  "!'\".": 4373,
  "!'',": 4374,
  "!''.": 4375,
  "!'),": 4376,
  "!',\"": 4377,
  "!'.\"": 4378,
  "!'?\"": 4379,
  "!.'\"": 4380,
  "!?!\"": 4381,
  "!?\",": 4382,
  "!?\".": 4383,
  "!\\\".": 4384,
  "!``,": 4385,
  "!``.": 4386,
  "!âĢĺ": 4387,
  "!âĢĻ": 4388,
  "!âĢľ": 4389,
  "!âĢĿ": 4390,
  "\"...": 4391,
  "\"âĢĶ": 4392,
  "####": 4393,
  "'!\",": 4394,
  "'!\".": 4395,
  "'!'.": 4396,
  "'?\",": 4397,
  "'?\".": 4398,
  "'âĢĿ": 4399,
  "****": 4400,
  "***.": 4401,
  ",...": 4402,
  ",âĢĵ": 4403,
  ",âĢĻ": 4404,
  ",âĢľ": 4405,
  ",âĢĿ": 4406,
  "---\"": 4407,
  "----": 4408,
  "-âĢĿ": 4409,
  ".\"</": 4410,
  ".''.": 4411,
  "..\".": 4412,
  "..,\"": 4413,
  "...\"": 4414,
  "...'": 4415,
  "....": 4416,
  "...?": 4417,
  ".âĢĭ": 4418,
  ".âĢĻ": 4419,
  ".âĢľ": 4420,
  ".âĢĿ": 4421,
  ".ï»¿": 4422,
  ".ï¿½": 4423,
  "1234": 4424,
  "2000": 4425,
  "2005": 4426,
  "2016": 4427,
  "5555": 4428,
  "9999": 4429,
  ":âĢľ": 4430,
  ":âĢĿ": 4431,
  "?!!\"": 4432,
  "?!\",": 4433,
  "?!\".": 4434,
  "?!'.": 4435,
  "?!,\"": 4436,
  "?!?\"": 4437,
  "?'\".": 4438,
  "?'',": 4439,
  "?''.": 4440,
  "??\".": 4441,
  "???\"": 4442,
  "?\\\".": 4443,
  "?``,": 4444,
  "?âĢĻ": 4445,
  "?âĢľ": 4446,
  "?âĢĿ": 4447,
  "AAAH": 4448,
  "ABCD": 4449,
  "AHHH": 4450,
  "ALex": 4451,
  "ANNA": 4452,
  "Aaah": 4453,
  "Aahh": 4454,
  "Aara": 4455,
  "Abba": 4456,
  "Abbi": 4457,
  "Abby": 4458,
  "Abee": 4459,
  "Abel": 4460,
  "Abhi": 4461,
  "Abie": 4462,
  "Abis": 4463,
  "Able": 4464,
  "Abna": 4465,
  "Abra": 4466,
  "Acid": 4467,
  "Adam": 4468,
  "Addy": 4469,
  "Adri": 4470,
  "Aero": 4471,
  "Aggy": 4472,
  "Agni": 4473,
  "Agua": 4474,
  "Ahem": 4475,
  "Ahha": 4476,
  "Ahhh": 4477,
  "Ahle": 4478,
  "Ahna": 4479,
  "Ahoo": 4480,
  "Ahoy": 4481,
  "Aida": 4482,
  "Aids": 4483,
  "Aila": 4484,
  "Aina": 4485,
  "Aine": 4486,
  "Aira": 4487,
  "Ajay": 4488,
  "Akio": 4489,
  "Alan": 4490,
  "Alas": 4491,
  "Alba": 4492,
  "Alby": 4493,
  "Alea": 4494,
  "Alec": 4495,
  "Alex": 4496,
  "Alfy": 4497,
  "Alia": 4498,
  "Alla": 4499,
  "Alli": 4500,
  "Ally": 4501,
  "Alma": 4502,
  "Also": 4503,
  "Alta": 4504,
  "Alwa": 4505,
  "Alya": 4506,
  "Alys": 4507,
  "Alyx": 4508,
  "Amal": 4509,
  "Aman": 4510,
  "Ambi": 4511,
  "Amel": 4512,
  "Amen": 4513,
  "Amie": 4514,
  "Amir": 4515,
  "Amit": 4516,
  "Ammi": 4517,
  "Ammy": 4518,
  "Amos": 4519,
  "Anca": 4520,
  "Ancy": 4521,
  "Andi": 4522,
  "Andy": 4523,
  "Aney": 4524,
  "Ange": 4525,
  "Anil": 4526,
  "Anji": 4527,
  "Anky": 4528,
  "Anna": 4529,
  "Anne": 4530,
  "Anni": 4531,
  "Anny": 4532,
  "Anto": 4533,
  "Ants": 4534,
  "Anty": 4535,
  "Anya": 4536,
  "Apon": 4537,
  "Appy": 4538,
  "Aqua": 4539,
  "Arch": 4540,
  "Arel": 4541,
  "Aren": 4542,
  "Arfy": 4543,
  "Argh": 4544,
  "Aria": 4545,
  "Aris": 4546,
  "Arlo": 4547,
  "Arly": 4548,
  "Arms": 4549,
  "Army": 4550,
  "Arne": 4551,
  "Arrr": 4552,
  "Arry": 4553,
  "Arty": 4554,
  "Arun": 4555,
  "Arya": 4556,
  "Asha": 4557,
  "Ashy": 4558,
  "Atop": 4559,
  "Atty": 4560,
  "Aunt": 4561,
  "Auto": 4562,
  "Aver": 4563,
  "Avis": 4564,
  "Away": 4565,
  "Awoo": 4566,
  "Awww": 4567,
  "Axel": 4568,
  "Axes": 4569,
  "Ayla": 4570,
  "Aziz": 4571,
  "BANG": 4572,
  "BEEF": 4573,
  "BEEP": 4574,
  "BITE": 4575,
  "BLOW": 4576,
  "BOMB": 4577,
  "BONG": 4578,
  "BOOM": 4579,
  "BRRR": 4580,
  "BULL": 4581,
  "BURN": 4582,
  "BURY": 4583,
  "Baah": 4584,
  "Babe": 4585,
  "Babs": 4586,
  "Babu": 4587,
  "Baby": 4588,
  "Back": 4589,
  "Bade": 4590,
  "Badi": 4591,
  "Bait": 4592,
  "Bake": 4593,
  "Bala": 4594,
  "Bald": 4595,
  "Ball": 4596,
  "Band": 4597,
  "Bang": 4598,
  "Bank": 4599,
  "Banu": 4600,
  "Barb": 4601,
  "Bark": 4602,
  "Bart": 4603,
  "Base": 4604,
  "Bath": 4605,
  "Bats": 4606,
  "Bawk": 4607,
  "Bead": 4608,
  "Beak": 4609,
  "Bean": 4610,
  "Bear": 4611,
  "Beat": 4612,
  "Beau": 4613,
  "Bebe": 4614,
  "Bebo": 4615,
  "Beck": 4616,
  "Beds": 4617,
  "Beef": 4618,
  "Beep": 4619,
  "Bees": 4620,
  "Beka": 4621,
  "Bela": 4622,
  "Bell": 4623,
  "Belt": 4624,
  "Bend": 4625,
  "Beni": 4626,
  "Bert": 4627,
  "Bery": 4628,
  "Bess": 4629,
  "Best": 4630,
  "Beth": 4631,
  "Bexy": 4632,
  "Biba": 4633,
  "Bibi": 4634,
  "Bibo": 4635,
  "Bien": 4636,
  "Biff": 4637,
  "Bika": 4638,
  "Bike": 4639,
  "Biki": 4640,
  "Biko": 4641,
  "Bill": 4642,
  "Bimo": 4643,
  "Bina": 4644,
  "Bing": 4645,
  "Bini": 4646,
  "Bink": 4647,
  "Bins": 4648,
  "Biny": 4649,
  "Bird": 4650,
  "Bite": 4651,
  "Blah": 4652,
  "Bleh": 4653,
  "Blip": 4654,
  "Blla": 4655,
  "Blob": 4656,
  "Blop": 4657,
  "Blow": 4658,
  "Blub": 4659,
  "Blue": 4660,
  "Blup": 4661,
  "Blur": 4662,
  "Bnat": 4663,
  "Boat": 4664,
  "Bobb": 4665,
  "Bobi": 4666,
  "Bobo": 4667,
  "Boby": 4668,
  "Bock": 4669,
  "Bodi": 4670,
  "Body": 4671,
  "Boil": 4672,
  "Bola": 4673,
  "Bold": 4674,
  "Boll": 4675,
  "Bolt": 4676,
  "Bolu": 4677,
  "Bond": 4678,
  "Bone": 4679,
  "Bono": 4680,
  "Bony": 4681,
  "Book": 4682,
  "Boom": 4683,
  "Boon": 4684,
  "Boop": 4685,
  "Boot": 4686,
  "Bopp": 4687,
  "Boss": 4688,
  "Both": 4689,
  "Bowl": 4690,
  "Bows": 4691,
  "Boxy": 4692,
  "Boys": 4693,
  "Bozo": 4694,
  "Brad": 4695,
  "Bram": 4696,
  "Brat": 4697,
  "Bree": 4698,
  "Bria": 4699,
  "Brie": 4700,
  "Brig": 4701,
  "Brin": 4702,
  "Brix": 4703,
  "Broc": 4704,
  "Brrr": 4705,
  "Bubs": 4706,
  "Bubu": 4707,
  "Buck": 4708,
  "Budd": 4709,
  "Bugs": 4710,
  "Bulb": 4711,
  "Buli": 4712,
  "Bull": 4713,
  "Bump": 4714,
  "Bunn": 4715,
  "Buns": 4716,
  "Burn": 4717,
  "Burt": 4718,
  "Bury": 4719,
  "Bush": 4720,
  "Bust": 4721,
  "Busy": 4722,
  "Buzz": 4723,
  "Bwak": 4724,
  "Byte": 4725,
  "Bzzy": 4726,
  "Bzzz": 4727,
  "CAKE": 4728,
  "CARS": 4729,
  "CHOO": 4730,
  "COME": 4731,
  "COOL": 4732,
  "Cado": 4733,
  "Cady": 4734,
  "Cafe": 4735,
  "Cage": 4736,
  "Cake": 4737,
  "Cale": 4738,
  "Calf": 4739,
  "Cali": 4740,
  "Call": 4741,
  "Calm": 4742,
  "Cami": 4743,
  "Camp": 4744,
  "Cana": 4745,
  "Cane": 4746,
  "Cape": 4747,
  "Caps": 4748,
  "Cara": 4749,
  "Card": 4750,
  "Care": 4751,
  "Cari": 4752,
  "Carl": 4753,
  "Caro": 4754,
  "Cars": 4755,
  "Cart": 4756,
  "Case": 4757,
  "Cass": 4758,
  "Cate": 4759,
  "Cath": 4760,
  "Cato": 4761,
  "Cats": 4762,
  "Caty": 4763,
  "Cece": 4764,
  "Celi": 4765,
  "Cell": 4766,
  "Chad": 4767,
  "Chai": 4768,
  "Cham": 4769,
  "Chaz": 4770,
  "Chee": 4771,
  "Chef": 4772,
  "Chel": 4773,
  "Chen": 4774,
  "Chet": 4775,
  "Chew": 4776,
  "Chip": 4777,
  "Chlo": 4778,
  "Chok": 4779,
  "Choo": 4780,
  "Chop": 4781,
  "Chri": 4782,
  "Chub": 4783,
  "Chug": 4784,
  "Cici": 4785,
  "City": 4786,
  "Clap": 4787,
  "Claw": 4788,
  "Clay": 4789,
  "Clem": 4790,
  "Cleo": 4791,
  "Clip": 4792,
  "Cloe": 4793,
  "Club": 4794,
  "Clue": 4795,
  "CoCo": 4796,
  "Coal": 4797,
  "Coat": 4798,
  "Cobb": 4799,
  "Coby": 4800,
  "Cock": 4801,
  "Coco": 4802,
  "Code": 4803,
  "Cody": 4804,
  "Coin": 4805,
  "Cola": 4806,
  "Cold": 4807,
  "Cole": 4808,
  "Comb": 4809,
  "Come": 4810,
  "Cone": 4811,
  "Cooh": 4812,
  "Cook": 4813,
  "Cool": 4814,
  "Coop": 4815,
  "Cops": 4816,
  "Copy": 4817,
  "Cora": 4818,
  "Cord": 4819,
  "Corn": 4820,
  "Cory": 4821,
  "Cost": 4822,
  "Cosy": 4823,
  "Cows": 4824,
  "Cowy": 4825,
  "Cozy": 4826,
  "Crab": 4827,
  "Crap": 4828,
  "Craw": 4829,
  "Cray": 4830,
  "Crew": 4831,
  "Crib": 4832,
  "Cric": 4833,
  "Cris": 4834,
  "Croc": 4835,
  "Crow": 4836,
  "Cruz": 4837,
  "Cube": 4838,
  "Cuby": 4839,
  "Cups": 4840,
  "Curl": 4841,
  "Curt": 4842,
  "Cute": 4843,
  "DARE": 4844,
  "DING": 4845,
  "DIVE": 4846,
  "DONG": 4847,
  "Daan": 4848,
  "Dada": 4849,
  "Dads": 4850,
  "Dadu": 4851,
  "Dady": 4852,
  "Dale": 4853,
  "Dami": 4854,
  "Damn": 4855,
  "Dana": 4856,
  "Dane": 4857,
  "Dang": 4858,
  "Dani": 4859,
  "Dans": 4860,
  "Dany": 4861,
  "Dara": 4862,
  "Dare": 4863,
  "Dark": 4864,
  "Darn": 4865,
  "Dash": 4866,
  "Dave": 4867,
  "Davy": 4868,
  "Dawn": 4869,
  "Days": 4870,
  "Dead": 4871,
  "Deaf": 4872,
  "Deal": 4873,
  "Dean": 4874,
  "Dear": 4875,
  "Deep": 4876,
  "Deer": 4877,
  "Deet": 4878,
  "Deli": 4879,
  "Demi": 4880,
  "Demo": 4881,
  "Demy": 4882,
  "Deni": 4883,
  "Deon": 4884,
  "Dese": 4885,
  "Desi": 4886,
  "Desk": 4887,
  "Devi": 4888,
  "DiDi": 4889,
  "Dibs": 4890,
  "Dick": 4891,
  "Didi": 4892,
  "Didn": 4893,
  "Dill": 4894,
  "Dime": 4895,
  "Dina": 4896,
  "Ding": 4897,
  "Dino": 4898,
  "Dirk": 4899,
  "Dirt": 4900,
  "Dish": 4901,
  "Diva": 4902,
  "Dive": 4903,
  "Diya": 4904,
  "Dodi": 4905,
  "Dodo": 4906,
  "Does": 4907,
  "Dogo": 4908,
  "Dogs": 4909,
  "Doll": 4910,
  "Dona": 4911,
  "Done": 4912,
  "Dong": 4913,
  "Dont": 4914,
  "Door": 4915,
  "Dora": 4916,
  "Dori": 4917,
  "Dory": 4918,
  "Dots": 4919,
  "Doug": 4920,
  "Dove": 4921,
  "Down": 4922,
  "Dozy": 4923,
  "Drat": 4924,
  "Draw": 4925,
  "Drew": 4926,
  "Drip": 4927,
  "Drop": 4928,
  "Drum": 4929,
  "Duck": 4930,
  "Duke": 4931,
  "Dull": 4932,
  "Dump": 4933,
  "Dust": 4934,
  "EDIT": 4935,
  "EEEK": 4936,
  "EMMA": 4937,
  "EWWW": 4938,
  "EXIT": 4939,
  "Each": 4940,
  "Earl": 4941,
  "Ears": 4942,
  "East": 4943,
  "Easy": 4944,
  "Echo": 4945,
  "Eddy": 4946,
  "Eden": 4947,
  "Edie": 4948,
  "Edna": 4949,
  "Eeee": 4950,
  "Eeek": 4951,
  "Eeew": 4952,
  "Egga": 4953,
  "Eggs": 4954,
  "Eggy": 4955,
  "Egon": 4956,
  "Elan": 4957,
  "Elby": 4958,
  "Elie": 4959,
  "Elin": 4960,
  "Elki": 4961,
  "Ella": 4962,
  "Elle": 4963,
  "Elli": 4964,
  "Ello": 4965,
  "Elly": 4966,
  "Elma": 4967,
  "Elmo": 4968,
  "Elsa": 4969,
  "Else": 4970,
  "Elza": 4971,
  "Emil": 4972,
  "Emla": 4973,
  "Emma": 4974,
  "Emme": 4975,
  "Emmi": 4976,
  "Emmy": 4977,
  "Engy": 4978,
  "Enid": 4979,
  "Enor": 4980,
  "Envy": 4981,
  "Enzo": 4982,
  "Eppy": 4983,
  "Eren": 4984,
  "Eric": 4985,
  "Erik": 4986,
  "Erin": 4987,
  "Erny": 4988,
  "Eron": 4989,
  "Esha": 4990,
  "Esme": 4991,
  "Etta": 4992,
  "Evan": 4993,
  "Even": 4994,
  "Ever": 4995,
  "Evey": 4996,
  "Evie": 4997,
  "Ewie": 4998,
  "Ewww": 4999,
  "Exam": 5000,
  "Exit": 5001,
  "Eyes": 5002,
  "Ezie": 5003,
  "Ezra": 5004,
  "FAKE": 5005,
  "FARM": 5006,
  "FILL": 5007,
  "FINE": 5008,
  "FIRE": 5009,
  "FORE": 5010,
  "FREE": 5011,
  "FUEL": 5012,
  "Face": 5013,
  "Fafa": 5014,
  "Fair": 5015,
  "Fake": 5016,
  "Fall": 5017,
  "Fame": 5018,
  "Fang": 5019,
  "Fans": 5020,
  "Fara": 5021,
  "Farm": 5022,
  "Fart": 5023,
  "Fast": 5024,
  "Fawn": 5025,
  "Faye": 5026,
  "Fear": 5027,
  "Feeb": 5028,
  "Feed": 5029,
  "Feel": 5030,
  "Feet": 5031,
  "Ferd": 5032,
  "Fern": 5033,
  "FiFi": 5034,
  "Fibi": 5035,
  "Fido": 5036,
  "Fifi": 5037,
  "Figo": 5038,
  "File": 5039,
  "Fili": 5040,
  "Fill": 5041,
  "Film": 5042,
  "Fina": 5043,
  "Find": 5044,
  "Fine": 5045,
  "Finn": 5046,
  "Fins": 5047,
  "Fira": 5048,
  "Fire": 5049,
  "Fish": 5050,
  "Fist": 5051,
  "Five": 5052,
  "Fixy": 5053,
  "Fizz": 5054,
  "Flag": 5055,
  "Flap": 5056,
  "Flea": 5057,
  "Flee": 5058,
  "Flew": 5059,
  "Flex": 5060,
  "Flic": 5061,
  "Flip": 5062,
  "Flit": 5063,
  "Flix": 5064,
  "Flop": 5065,
  "Flow": 5066,
  "Foil": 5067,
  "Fold": 5068,
  "Food": 5069,
  "Fool": 5070,
  "Foop": 5071,
  "Foot": 5072,
  "Ford": 5073,
  "Fore": 5074,
  "Fork": 5075,
  "Fort": 5076,
  "Foul": 5077,
  "Four": 5078,
  "Foxy": 5079,
  "Fran": 5080,
  "Fraz": 5081,
  "Fred": 5082,
  "Free": 5083,
  "Frog": 5084,
  "From": 5085,
  "Fuel": 5086,
  "Full": 5087,
  "Fury": 5088,
  "Fuzz": 5089,
  "Fynn": 5090,
  "GIVE": 5091,
  "GLOW": 5092,
  "GOAL": 5093,
  "GOOD": 5094,
  "GOSH": 5095,
  "GRRR": 5096,
  "Gabe": 5097,
  "Gaby": 5098,
  "Gaga": 5099,
  "Gage": 5100,
  "Gail": 5101,
  "Gain": 5102,
  "Gale": 5103,
  "Game": 5104,
  "Gary": 5105,
  "Gasp": 5106,
  "Gate": 5107,
  "Gato": 5108,
  "Gaty": 5109,
  "Gaze": 5110,
  "Gear": 5111,
  "Geez": 5112,
  "Geko": 5113,
  "Gema": 5114,
  "Gems": 5115,
  "Gene": 5116,
  "Geno": 5117,
  "Gert": 5118,
  "Gibs": 5119,
  "Gift": 5120,
  "Giga": 5121,
  "Gigi": 5122,
  "Gill": 5123,
  "Gina": 5124,
  "Gini": 5125,
  "Gino": 5126,
  "Giri": 5127,
  "Girl": 5128,
  "Give": 5129,
  "Glad": 5130,
  "Gleb": 5131,
  "Glen": 5132,
  "Glim": 5133,
  "Glow": 5134,
  "Glub": 5135,
  "Glue": 5136,
  "Glug": 5137,
  "Glum": 5138,
  "Goal": 5139,
  "Goat": 5140,
  "Goes": 5141,
  "Gogo": 5142,
  "Gold": 5143,
  "Golf": 5144,
  "Gone": 5145,
  "Good": 5146,
  "Gork": 5147,
  "Goro": 5148,
  "Gort": 5149,
  "Gosh": 5150,
  "Graa": 5151,
  "Grab": 5152,
  "Grae": 5153,
  "Gran": 5154,
  "Gray": 5155,
  "Greg": 5156,
  "Grey": 5157,
  "Grom": 5158,
  "Grow": 5159,
  "Grrr": 5160,
  "Guli": 5161,
  "Gulp": 5162,
  "Guns": 5163,
  "Guri": 5164,
  "Gurt": 5165,
  "Guru": 5166,
  "Guys": 5167,
  "Gwen": 5168,
  "HALT": 5169,
  "HANG": 5170,
  "HELP": 5171,
  "HERE": 5172,
  "HOLD": 5173,
  "HONK": 5174,
  "HORN": 5175,
  "HOSE": 5176,
  "Hack": 5177,
  "Haha": 5178,
  "Hair": 5179,
  "Half": 5180,
  "Hali": 5181,
  "Hall": 5182,
  "Halt": 5183,
  "Hana": 5184,
  "Hand": 5185,
  "Hang": 5186,
  "Hani": 5187,
  "Hank": 5188,
  "Hans": 5189,
  "Hapi": 5190,
  "Hard": 5191,
  "Hare": 5192,
  "Hari": 5193,
  "Hark": 5194,
  "Haru": 5195,
  "Hash": 5196,
  "Hate": 5197,
  "Hats": 5198,
  "Have": 5199,
  "Hawk": 5200,
  "Head": 5201,
  "Heal": 5202,
  "Hear": 5203,
  "Heat": 5204,
  "Heba": 5205,
  "Heel": 5206,
  "Hehe": 5207,
  "Hein": 5208,
  "Heli": 5209,
  "Hell": 5210,
  "Help": 5211,
  "Hema": 5212,
  "Herb": 5213,
  "Here": 5214,
  "Hero": 5215,
  "Heyo": 5216,
  "Hide": 5217,
  "High": 5218,
  "Hiii": 5219,
  "Hill": 5220,
  "Hina": 5221,
  "Hiro": 5222,
  "Hisa": 5223,
  "Hiss": 5224,
  "Hiya": 5225,
  "Hmmm": 5226,
  "Hmpf": 5227,
  "Hmph": 5228,
  "Hoho": 5229,
  "Hola": 5230,
  "Hold": 5231,
  "Hole": 5232,
  "Home": 5233,
  "Honk": 5234,
  "Hook": 5235,
  "Hoop": 5236,
  "Hoot": 5237,
  "Hope": 5238,
  "Hops": 5239,
  "Horn": 5240,
  "Hose": 5241,
  "Hour": 5242,
  "Howl": 5243,
  "Hrrr": 5244,
  "Hrry": 5245,
  "Huey": 5246,
  "Huff": 5247,
  "Huge": 5248,
  "Hugh": 5249,
  "Hugo": 5250,
  "Hugs": 5251,
  "Hula": 5252,
  "Hurt": 5253,
  "Hush": 5254,
  "Iara": 5255,
  "Icey": 5256,
  "Icky": 5257,
  "Icne": 5258,
  "Idea": 5259,
  "Iggy": 5260,
  "Immy": 5261,
  "Impy": 5262,
  "Inch": 5263,
  "Indo": 5264,
  "Indy": 5265,
  "Inky": 5266,
  "Inny": 5267,
  "Into": 5268,
  "Iona": 5269,
  "Iris": 5270,
  "Irma": 5271,
  "Iron": 5272,
  "Isha": 5273,
  "Isla": 5274,
  "Isnt": 5275,
  "Issa": 5276,
  "Issy": 5277,
  "Itch": 5278,
  "Itsy": 5279,
  "Itto": 5280,
  "Itty": 5281,
  "Ivan": 5282,
  "Izzi": 5283,
  "Izzy": 5284,
  "JACK": 5285,
  "JAKE": 5286,
  "JOIN": 5287,
  "JUMP": 5288,
  "Jaak": 5289,
  "JacK": 5290,
  "Jace": 5291,
  "Jack": 5292,
  "Jacy": 5293,
  "Jada": 5294,
  "Jade": 5295,
  "Jail": 5296,
  "Jain": 5297,
  "Jake": 5298,
  "Jaki": 5299,
  "Jami": 5300,
  "Jana": 5301,
  "Jane": 5302,
  "Jang": 5303,
  "Jany": 5304,
  "Jase": 5305,
  "Jaws": 5306,
  "Jaxi": 5307,
  "Jaya": 5308,
  "Jazz": 5309,
  "Jean": 5310,
  "Jeep": 5311,
  "Jeev": 5312,
  "Jeez": 5313,
  "Jeff": 5314,
  "Jeli": 5315,
  "Jell": 5316,
  "Jema": 5317,
  "Jemo": 5318,
  "Jems": 5319,
  "Jena": 5320,
  "Jeni": 5321,
  "Jenn": 5322,
  "Jens": 5323,
  "Jesi": 5324,
  "Jess": 5325,
  "Jeth": 5326,
  "Jets": 5327,
  "Jhon": 5328,
  "Jill": 5329,
  "Jimi": 5330,
  "Jimy": 5331,
  "Jina": 5332,
  "Jing": 5333,
  "JoJo": 5334,
  "Joan": 5335,
  "Joby": 5336,
  "Jock": 5337,
  "Jodi": 5338,
  "Jody": 5339,
  "Joel": 5340,
  "Joey": 5341,
  "John": 5342,
  "Join": 5343,
  "Jojo": 5344,
  "Joke": 5345,
  "Joki": 5346,
  "Jone": 5347,
  "Joni": 5348,
  "Jony": 5349,
  "Joon": 5350,
  "Jory": 5351,
  "Jose": 5352,
  "Josh": 5353,
  "Juan": 5354,
  "Judd": 5355,
  "Jude": 5356,
  "Judy": 5357,
  "Juju": 5358,
  "Jula": 5359,
  "Juli": 5360,
  "July": 5361,
  "Jump": 5362,
  "June": 5363,
  "Juni": 5364,
  "Junk": 5365,
  "Juno": 5366,
  "Just": 5367,
  "KEEP": 5368,
  "KIND": 5369,
  "KISS": 5370,
  "Kace": 5371,
  "Kadi": 5372,
  "Kaia": 5373,
  "Kain": 5374,
  "Kaio": 5375,
  "Kaja": 5376,
  "Kala": 5377,
  "Kale": 5378,
  "Kali": 5379,
  "Kami": 5380,
  "Kane": 5381,
  "Kani": 5382,
  "Kara": 5383,
  "Kari": 5384,
  "Karl": 5385,
  "Kary": 5386,
  "Kata": 5387,
  "Kate": 5388,
  "Kath": 5389,
  "Kati": 5390,
  "Kato": 5391,
  "Katy": 5392,
  "Kaya": 5393,
  "Kaye": 5394,
  "Kean": 5395,
  "Keen": 5396,
  "Keep": 5397,
  "Keon": 5398,
  "Kera": 5399,
  "Keri": 5400,
  "Keti": 5401,
  "Keys": 5402,
  "Kick": 5403,
  "Kids": 5404,
  "Kien": 5405,
  "Kiki": 5406,
  "Kiko": 5407,
  "Kimi": 5408,
  "Kind": 5409,
  "King": 5410,
  "Kira": 5411,
  "Kiri": 5412,
  "Kirk": 5413,
  "Kisa": 5414,
  "Kiss": 5415,
  "Kite": 5416,
  "Kiti": 5417,
  "Kito": 5418,
  "Kiwi": 5419,
  "Kiya": 5420,
  "Kleo": 5421,
  "Knee": 5422,
  "Knob": 5423,
  "Knot": 5424,
  "Know": 5425,
  "Kobo": 5426,
  "Koda": 5427,
  "Kody": 5428,
  "Koki": 5429,
  "Koko": 5430,
  "Kola": 5431,
  "Kook": 5432,
  "Kora": 5433,
  "Kory": 5434,
  "Kota": 5435,
  "Kraa": 5436,
  "Kris": 5437,
  "Kumi": 5438,
  "Kurt": 5439,
  "Kwee": 5440,
  "Kweh": 5441,
  "Kyla": 5442,
  "Kyle": 5443,
  "Kyra": 5444,
  "LAND": 5445,
  "LILY": 5446,
  "LION": 5447,
  "LOOK": 5448,
  "LOST": 5449,
  "LOUD": 5450,
  "LOVE": 5451,
  "LUNG": 5452,
  "Labs": 5453,
  "Laci": 5454,
  "Lacy": 5455,
  "Lady": 5456,
  "Laia": 5457,
  "Lake": 5458,
  "Lala": 5459,
  "Lale": 5460,
  "Lali": 5461,
  "Lamb": 5462,
  "Lamp": 5463,
  "Lana": 5464,
  "Land": 5465,
  "Lane": 5466,
  "Lani": 5467,
  "Lara": 5468,
  "Lark": 5469,
  "Lars": 5470,
  "Last": 5471,
  "Late": 5472,
  "Lava": 5473,
  "Lawn": 5474,
  "Laws": 5475,
  "Lazy": 5476,
  "Lead": 5477,
  "Leaf": 5478,
  "Leah": 5479,
  "Leak": 5480,
  "Lean": 5481,
  "Leap": 5482,
  "Left": 5483,
  "Leia": 5484,
  "Lela": 5485,
  "Lelu": 5486,
  "Lena": 5487,
  "Lend": 5488,
  "Leni": 5489,
  "Leon": 5490,
  "Leti": 5491,
  "Lets": 5492,
  "Levi": 5493,
  "Lexa": 5494,
  "Lexi": 5495,
  "Leya": 5496,
  "LiLi": 5497,
  "Liam": 5498,
  "Lian": 5499,
  "Liar": 5500,
  "Lies": 5501,
  "Life": 5502,
  "Lift": 5503,
  "Like": 5504,
  "Lila": 5505,
  "Lili": 5506,
  "Lill": 5507,
  "Lilo": 5508,
  "Lily": 5509,
  "Lime": 5510,
  "Limo": 5511,
  "Lina": 5512,
  "Line": 5513,
  "Ling": 5514,
  "Lion": 5515,
  "Lisa": 5516,
  "Liss": 5517,
  "Lisy": 5518,
  "Live": 5519,
  "Livy": 5520,
  "Liya": 5521,
  "Liza": 5522,
  "Lizz": 5523,
  "Llcu": 5524,
  "LoLo": 5525,
  "Load": 5526,
  "Lock": 5527,
  "Logs": 5528,
  "Lois": 5529,
  "Loki": 5530,
  "Lola": 5531,
  "Loli": 5532,
  "Lolo": 5533,
  "Loma": 5534,
  "Long": 5535,
  "Loni": 5536,
  "Look": 5537,
  "Loop": 5538,
  "Lora": 5539,
  "Lord": 5540,
  "Lori": 5541,
  "Lorn": 5542,
  "Lost": 5543,
  "Lots": 5544,
  "Loud": 5545,
  "Love": 5546,
  "Luba": 5547,
  "Luca": 5548,
  "Luce": 5549,
  "Luci": 5550,
  "Luck": 5551,
  "Lucy": 5552,
  "Ludy": 5553,
  "Luis": 5554,
  "Luka": 5555,
  "Luke": 5556,
  "Lula": 5557,
  "Luli": 5558,
  "Lulu": 5559,
  "Lumi": 5560,
  "Luna": 5561,
  "Lung": 5562,
  "Lupe": 5563,
  "Lupo": 5564,
  "Luxy": 5565,
  "Luzy": 5566,
  "Lyca": 5567,
  "Lyla": 5568,
  "Lyle": 5569,
  "Lyly": 5570,
  "Lynn": 5571,
  "Lyra": 5572,
  "MAIL": 5573,
  "MAKE": 5574,
  "MARK": 5575,
  "MEAT": 5576,
  "MEOW": 5577,
  "MINE": 5578,
  "Maaa": 5579,
  "Maci": 5580,
  "Mack": 5581,
  "Macy": 5582,
  "Made": 5583,
  "Madi": 5584,
  "Mads": 5585,
  "Mags": 5586,
  "Maia": 5587,
  "Mail": 5588,
  "Maja": 5589,
  "Make": 5590,
  "Maki": 5591,
  "Mala": 5592,
  "Mali": 5593,
  "Mall": 5594,
  "Maly": 5595,
  "Mama": 5596,
  "Mami": 5597,
  "Mamu": 5598,
  "Mana": 5599,
  "Mani": 5600,
  "Manu": 5601,
  "Many": 5602,
  "Maps": 5603,
  "Mara": 5604,
  "Marc": 5605,
  "Mare": 5606,
  "Mari": 5607,
  "Mark": 5608,
  "Mars": 5609,
  "Marv": 5610,
  "Mary": 5611,
  "Mask": 5612,
  "Mate": 5613,
  "Math": 5614,
  "Mati": 5615,
  "Matt": 5616,
  "Maty": 5617,
  "Maud": 5618,
  "Maxa": 5619,
  "Maxi": 5620,
  "Maxy": 5621,
  "Maya": 5622,
  "Mays": 5623,
  "Maze": 5624,
  "Mazi": 5625,
  "Meal": 5626,
  "Mean": 5627,
  "Meat": 5628,
  "Meep": 5629,
  "Meet": 5630,
  "Mega": 5631,
  "Mehh": 5632,
  "Mela": 5633,
  "Melt": 5634,
  "Mena": 5635,
  "Menu": 5636,
  "Meow": 5637,
  "Meri": 5638,
  "Merk": 5639,
  "Mery": 5640,
  "Mess": 5641,
  "Meta": 5642,
  "Meto": 5643,
  "Meva": 5644,
  "Mhmm": 5645,
  "Miah": 5646,
  "Miao": 5647,
  "Mica": 5648,
  "Mice": 5649,
  "Mick": 5650,
  "Midi": 5651,
  "Migo": 5652,
  "Mijo": 5653,
  "Mika": 5654,
  "Mike": 5655,
  "Miki": 5656,
  "Miko": 5657,
  "Miku": 5658,
  "Mila": 5659,
  "Mild": 5660,
  "Milk": 5661,
  "Mill": 5662,
  "Milo": 5663,
  "Mily": 5664,
  "Mimi": 5665,
  "Mims": 5666,
  "Mina": 5667,
  "Mind": 5668,
  "Mine": 5669,
  "Ming": 5670,
  "Minh": 5671,
  "Mini": 5672,
  "Minn": 5673,
  "Mint": 5674,
  "Minu": 5675,
  "Mira": 5676,
  "Miri": 5677,
  "Misa": 5678,
  "Misi": 5679,
  "Miss": 5680,
  "Mist": 5681,
  "Mita": 5682,
  "Mitt": 5683,
  "Mixy": 5684,
  "Mmhm": 5685,
  "Mmmm": 5686,
  "Mmph": 5687,
  "MoJo": 5688,
  "Moby": 5689,
  "Mody": 5690,
  "Mogo": 5691,
  "Mojo": 5692,
  "Moki": 5693,
  "Moko": 5694,
  "Mola": 5695,
  "Mole": 5696,
  "Moll": 5697,
  "Moly": 5698,
  "Moma": 5699,
  "Momi": 5700,
  "Momm": 5701,
  "Momo": 5702,
  "Moms": 5703,
  "Momy": 5704,
  "Mona": 5705,
  "Moni": 5706,
  "Monu": 5707,
  "Moon": 5708,
  "Mops": 5709,
  "Mora": 5710,
  "More": 5711,
  "Morg": 5712,
  "Most": 5713,
  "Move": 5714,
  "Much": 5715,
  "Mudd": 5716,
  "Mugs": 5717,
  "Mule": 5718,
  "Mumi": 5719,
  "Mumm": 5720,
  "Mums": 5721,
  "Mumy": 5722,
  "Must": 5723,
  "Mutt": 5724,
  "Mwaa": 5725,
  "Mwah": 5726,
  "Myke": 5727,
  "Myli": 5728,
  "Myra": 5729,
  "NASA": 5730,
  "NEWS": 5731,
  "NExt": 5732,
  "NOOO": 5733,
  "Naan": 5734,
  "Naia": 5735,
  "Nail": 5736,
  "Nala": 5737,
  "Name": 5738,
  "Nami": 5739,
  "Nana": 5740,
  "Nani": 5741,
  "Nano": 5742,
  "Nanu": 5743,
  "Naps": 5744,
  "Nata": 5745,
  "Nate": 5746,
  "Navy": 5747,
  "Naya": 5748,
  "Near": 5749,
  "Neat": 5750,
  "Neck": 5751,
  "Need": 5752,
  "Neha": 5753,
  "Neil": 5754,
  "Nell": 5755,
  "Nemo": 5756,
  "Nena": 5757,
  "Nera": 5758,
  "Nerf": 5759,
  "Nero": 5760,
  "Nest": 5761,
  "Neva": 5762,
  "Neve": 5763,
  "News": 5764,
  "Next": 5765,
  "Nibs": 5766,
  "Nice": 5767,
  "Nick": 5768,
  "Nico": 5769,
  "Nike": 5770,
  "Niki": 5771,
  "Niko": 5772,
  "Nila": 5773,
  "Nina": 5774,
  "Nine": 5775,
  "Nisa": 5776,
  "Nita": 5777,
  "Noah": 5778,
  "Noel": 5779,
  "Nola": 5780,
  "Nona": 5781,
  "None": 5782,
  "Noni": 5783,
  "Noon": 5784,
  "Nooo": 5785,
  "Nope": 5786,
  "Nora": 5787,
  "Nori": 5788,
  "Norm": 5789,
  "Nort": 5790,
  "Nose": 5791,
  "Nosy": 5792,
  "Note": 5793,
  "Noun": 5794,
  "Nova": 5795,
  "Nuts": 5796,
  "Nyah": 5797,
  "OPEN": 5798,
  "OUCH": 5799,
  "Oaky": 5800,
  "Oats": 5801,
  "Oaty": 5802,
  "Obey": 5803,
  "Ocky": 5804,
  "Octo": 5805,
  "Octy": 5806,
  "Oggy": 5807,
  "Ohhh": 5808,
  "Ohno": 5809,
  "Oily": 5810,
  "Oink": 5811,
  "Okay": 5812,
  "Okey": 5813,
  "Okie": 5814,
  "Olaf": 5815,
  "Olga": 5816,
  "Olly": 5817,
  "Omar": 5818,
  "Once": 5819,
  "Onee": 5820,
  "Only": 5821,
  "Onto": 5822,
  "Ooes": 5823,
  "Oohh": 5824,
  "Oooh": 5825,
  "Oooo": 5826,
  "Oops": 5827,
  "Opal": 5828,
  "Open": 5829,
  "Oreo": 5830,
  "Orla": 5831,
  "Otis": 5832,
  "Otto": 5833,
  "Otty": 5834,
  "Otus": 5835,
  "Ouch": 5836,
  "Ound": 5837,
  "Ours": 5838,
  "Oven": 5839,
  "Over": 5840,
  "Owch": 5841,
  "Owen": 5842,
  "Owie": 5843,
  "Owls": 5844,
  "Owly": 5845,
  "Ozzy": 5846,
  "PARK": 5847,
  "PASS": 5848,
  "PINK": 5849,
  "POOF": 5850,
  "PUSH": 5851,
  "Pack": 5852,
  "Paco": 5853,
  "Page": 5854,
  "Paid": 5855,
  "Pain": 5856,
  "Pale": 5857,
  "Palm": 5858,
  "Pans": 5859,
  "Papa": 5860,
  "Papi": 5861,
  "Papy": 5862,
  "Pari": 5863,
  "Park": 5864,
  "Part": 5865,
  "Pasa": 5866,
  "Pass": 5867,
  "Paul": 5868,
  "Pawl": 5869,
  "Paws": 5870,
  "Pear": 5871,
  "Peas": 5872,
  "Peck": 5873,
  "Peek": 5874,
  "Peep": 5875,
  "Peng": 5876,
  "Penn": 5877,
  "Pepe": 5878,
  "Pepi": 5879,
  "Pepo": 5880,
  "Pere": 5881,
  "Pest": 5882,
  "Peta": 5883,
  "Pete": 5884,
  "Pets": 5885,
  "Pfff": 5886,
  "Pfft": 5887,
  "Phew": 5888,
  "Phil": 5889,
  "Pick": 5890,
  "Pico": 5891,
  "Pies": 5892,
  "Pige": 5893,
  "Pigs": 5894,
  "Pike": 5895,
  "Piku": 5896,
  "Pill": 5897,
  "Pina": 5898,
  "Pine": 5899,
  "Ping": 5900,
  "Pink": 5901,
  "Pins": 5902,
  "Piny": 5903,
  "Pipe": 5904,
  "Pipi": 5905,
  "Pito": 5906,
  "Pixy": 5907,
  "Plam": 5908,
  "Plan": 5909,
  "Play": 5910,
  "Plip": 5911,
  "Plop": 5912,
  "Plug": 5913,
  "Plum": 5914,
  "Plus": 5915,
  "PoPo": 5916,
  "Poco": 5917,
  "Poem": 5918,
  "Pogo": 5919,
  "Poke": 5920,
  "Poky": 5921,
  "Pola": 5922,
  "Pole": 5923,
  "Poli": 5924,
  "Polo": 5925,
  "Pond": 5926,
  "Pong": 5927,
  "Pony": 5928,
  "Poof": 5929,
  "Pooh": 5930,
  "Pool": 5931,
  "Poop": 5932,
  "Poor": 5933,
  "Popi": 5934,
  "Popo": 5935,
  "Pops": 5936,
  "Port": 5937,
  "Post": 5938,
  "Pots": 5939,
  "Poul": 5940,
  "Pour": 5941,
  "Pray": 5942,
  "Prim": 5943,
  "Prrr": 5944,
  "Psst": 5945,
  "Puff": 5946,
  "Pull": 5947,
  "Pump": 5948,
  "Purp": 5949,
  "Purr": 5950,
  "Push": 5951,
  "Puss": 5952,
  "Putt": 5953,
  "Putu": 5954,
  "Pwah": 5955,
  "Quip": 5956,
  "Quit": 5957,
  "Quiz": 5958,
  "RAIN": 5959,
  "RAWR": 5960,
  "REAL": 5961,
  "REDO": 5962,
  "RING": 5963,
  "ROAR": 5964,
  "RYAN": 5965,
  "Rabi": 5966,
  "Race": 5967,
  "Racy": 5968,
  "Rael": 5969,
  "Rafa": 5970,
  "Raff": 5971,
  "Rafi": 5972,
  "Raft": 5973,
  "Rags": 5974,
  "Ragu": 5975,
  "Rahh": 5976,
  "Rain": 5977,
  "Raja": 5978,
  "Raji": 5979,
  "Raju": 5980,
  "Rake": 5981,
  "Raky": 5982,
  "Ralf": 5983,
  "Rama": 5984,
  "Rami": 5985,
  "Rana": 5986,
  "Rani": 5987,
  "Rara": 5988,
  "Rare": 5989,
  "Rats": 5990,
  "Raul": 5991,
  "Rave": 5992,
  "Ravi": 5993,
  "Rawr": 5994,
  "Raya": 5995,
  "Razy": 5996,
  "Read": 5997,
  "Real": 5998,
  "Reed": 5999,
  "Reki": 6000,
  "Remi": 6001,
  "Remo": 6002,
  "Remy": 6003,
  "Rena": 6004,
  "Rene": 6005,
  "Reno": 6006,
  "Rent": 6007,
  "Repo": 6008,
  "Rest": 6009,
  "Revo": 6010,
  "Reya": 6011,
  "Rhea": 6012,
  "Rhys": 6013,
  "Rica": 6014,
  "Rice": 6015,
  "Rich": 6016,
  "Rick": 6017,
  "Rico": 6018,
  "Ride": 6019,
  "Riht": 6020,
  "Riki": 6021,
  "Riko": 6022,
  "Rina": 6023,
  "Ring": 6024,
  "Rini": 6025,
  "Rino": 6026,
  "Ripe": 6027,
  "Riri": 6028,
  "Risa": 6029,
  "Rise": 6030,
  "Risk": 6031,
  "Rita": 6032,
  "Riya": 6033,
  "Riyu": 6034,
  "Road": 6035,
  "Roan": 6036,
  "Roar": 6037,
  "Robo": 6038,
  "Roby": 6039,
  "Rock": 6040,
  "Roda": 6041,
  "Rojo": 6042,
  "Roko": 6043,
  "Rolf": 6044,
  "Roli": 6045,
  "Roll": 6046,
  "Rolo": 6047,
  "Roly": 6048,
  "Roma": 6049,
  "Rome": 6050,
  "Romy": 6051,
  "Rona": 6052,
  "Roni": 6053,
  "Roof": 6054,
  "Rook": 6055,
  "Room": 6056,
  "Root": 6057,
  "Rope": 6058,
  "Ropy": 6059,
  "Rory": 6060,
  "Rosa": 6061,
  "Rose": 6062,
  "Ross": 6063,
  "Rosy": 6064,
  "Roxy": 6065,
  "Roza": 6066,
  "Rrrr": 6067,
  "Rubi": 6068,
  "Ruby": 6069,
  "Rude": 6070,
  "Rudi": 6071,
  "Rudy": 6072,
  "Ruff": 6073,
  "Rugs": 6074,
  "Rule": 6075,
  "Runt": 6076,
  "Rush": 6077,
  "Ruth": 6078,
  "Ryam": 6079,
  "Ryan": 6080,
  "SAFE": 6081,
  "SALE": 6082,
  "SALT": 6083,
  "SARA": 6084,
  "SEAL": 6085,
  "SHUT": 6086,
  "SIGH": 6087,
  "SKIP": 6088,
  "SLAP": 6089,
  "SLIP": 6090,
  "SLOW": 6091,
  "SNAP": 6092,
  "SNIP": 6093,
  "SPEL": 6094,
  "SPIN": 6095,
  "STAY": 6096,
  "STOP": 6097,
  "Sack": 6098,
  "Safe": 6099,
  "Sage": 6100,
  "Sail": 6101,
  "Sale": 6102,
  "Sall": 6103,
  "Salt": 6104,
  "Sama": 6105,
  "Same": 6106,
  "Sami": 6107,
  "Sams": 6108,
  "Samy": 6109,
  "Sana": 6110,
  "Sand": 6111,
  "Sani": 6112,
  "Sara": 6113,
  "Sari": 6114,
  "Save": 6115,
  "Savi": 6116,
  "Saya": 6117,
  "Scan": 6118,
  "Scat": 6119,
  "Sche": 6120,
  "Seal": 6121,
  "Sean": 6122,
  "Seat": 6123,
  "Seed": 6124,
  "Seek": 6125,
  "Seem": 6126,
  "Self": 6127,
  "Sell": 6128,
  "Sena": 6129,
  "Send": 6130,
  "Sera": 6131,
  "Seta": 6132,
  "Seth": 6133,
  "Shad": 6134,
  "Shar": 6135,
  "Shay": 6136,
  "Shen": 6137,
  "Shep": 6138,
  "Shhh": 6139,
  "Ship": 6140,
  "Shoe": 6141,
  "Shoo": 6142,
  "Shop": 6143,
  "Shot": 6144,
  "Show": 6145,
  "Shut": 6146,
  "Sick": 6147,
  "Sigh": 6148,
  "Sign": 6149,
  "Silk": 6150,
  "Sima": 6151,
  "Simi": 6152,
  "Sina": 6153,
  "Sing": 6154,
  "Sink": 6155,
  "Sins": 6156,
  "Sire": 6157,
  "Siri": 6158,
  "Sisi": 6159,
  "Sita": 6160,
  "Size": 6161,
  "Skin": 6162,
  "Skip": 6163,
  "Skye": 6164,
  "Slam": 6165,
  "Slap": 6166,
  "Slim": 6167,
  "Slip": 6168,
  "Slow": 6169,
  "Snap": 6170,
  "Snip": 6171,
  "Snow": 6172,
  "Snug": 6173,
  "Soak": 6174,
  "Soap": 6175,
  "Soar": 6176,
  "Soca": 6177,
  "Sock": 6178,
  "Soda": 6179,
  "Sofi": 6180,
  "Soft": 6181,
  "Soil": 6182,
  "Soji": 6183,
  "Sold": 6184,
  "Solo": 6185,
  "Some": 6186,
  "Sona": 6187,
  "Song": 6188,
  "Soni": 6189,
  "Soon": 6190,
  "Soot": 6191,
  "Sora": 6192,
  "Sort": 6193,
  "Soso": 6194,
  "Soup": 6195,
  "Sour": 6196,
  "Spin": 6197,
  "Spit": 6198,
  "Spoe": 6199,
  "Spot": 6200,
  "Spud": 6201,
  "Spun": 6202,
  "Sshh": 6203,
  "Sssh": 6204,
  "Stan": 6205,
  "Star": 6206,
  "Stay": 6207,
  "Stem": 6208,
  "Step": 6209,
  "Stew": 6210,
  "Stir": 6211,
  "Stop": 6212,
  "Such": 6213,
  "Suey": 6214,
  "Sugi": 6215,
  "Suit": 6216,
  "Suki": 6217,
  "Sumi": 6218,
  "Suna": 6219,
  "Sung": 6220,
  "Suni": 6221,
  "Suns": 6222,
  "Supa": 6223,
  "Sure": 6224,
  "Surf": 6225,
  "Susa": 6226,
  "Suse": 6227,
  "Susi": 6228,
  "Susu": 6229,
  "Susy": 6230,
  "Suzi": 6231,
  "Suzy": 6232,
  "Sven": 6233,
  "Swan": 6234,
  "Swap": 6235,
  "Swat": 6236,
  "Swim": 6237,
  "TALL": 6238,
  "TAXI": 6239,
  "TELL": 6240,
  "TEST": 6241,
  "THIN": 6242,
  "THIS": 6243,
  "TOOT": 6244,
  "TOYS": 6245,
  "Taco": 6246,
  "Tada": 6247,
  "Tail": 6248,
  "Take": 6249,
  "Tala": 6250,
  "Talk": 6251,
  "Tall": 6252,
  "Talu": 6253,
  "Tama": 6254,
  "Tami": 6255,
  "Tamy": 6256,
  "Tana": 6257,
  "Tane": 6258,
  "Tank": 6259,
  "Tape": 6260,
  "Taps": 6261,
  "Tara": 6262,
  "Tari": 6263,
  "Taro": 6264,
  "Task": 6265,
  "Tata": 6266,
  "Tate": 6267,
  "Taxi": 6268,
  "Taxy": 6269,
  "Team": 6270,
  "Tear": 6271,
  "Teco": 6272,
  "Tedd": 6273,
  "Tedi": 6274,
  "Teds": 6275,
  "Tell": 6276,
  "Teni": 6277,
  "Teri": 6278,
  "Tess": 6279,
  "Test": 6280,
  "Thad": 6281,
  "Than": 6282,
  "That": 6283,
  "Thea": 6284,
  "Them": 6285,
  "Then": 6286,
  "Theo": 6287,
  "They": 6288,
  "Thin": 6289,
  "This": 6290,
  "Thom": 6291,
  "Thor": 6292,
  "Thus": 6293,
  "Tiam": 6294,
  "Tick": 6295,
  "Tico": 6296,
  "Tide": 6297,
  "Tidy": 6298,
  "Tiff": 6299,
  "Tigo": 6300,
  "Tika": 6301,
  "Tiki": 6302,
  "Tiko": 6303,
  "Tila": 6304,
  "Till": 6305,
  "Tilo": 6306,
  "Tima": 6307,
  "Time": 6308,
  "Timi": 6309,
  "Timo": 6310,
  "Timy": 6311,
  "Tina": 6312,
  "Ting": 6313,
  "Tini": 6314,
  "Tink": 6315,
  "Tino": 6316,
  "Tiny": 6317,
  "Tips": 6318,
  "Tire": 6319,
  "Titi": 6320,
  "Tito": 6321,
  "Tiya": 6322,
  "Toad": 6323,
  "Tobi": 6324,
  "Toby": 6325,
  "Tock": 6326,
  "Todd": 6327,
  "Todo": 6328,
  "Toes": 6329,
  "Toey": 6330,
  "Tofu": 6331,
  "Toke": 6332,
  "Told": 6333,
  "Toly": 6334,
  "Toma": 6335,
  "Tomi": 6336,
  "Tomo": 6337,
  "Toms": 6338,
  "Tomy": 6339,
  "Toni": 6340,
  "Tony": 6341,
  "Tool": 6342,
  "Toot": 6343,
  "Tops": 6344,
  "Tori": 6345,
  "Tory": 6346,
  "Toss": 6347,
  "Toto": 6348,
  "Tour": 6349,
  "Town": 6350,
  "Toya": 6351,
  "Toys": 6352,
  "Trap": 6353,
  "Tray": 6354,
  "Tree": 6355,
  "Trey": 6356,
  "Trip": 6357,
  "Trix": 6358,
  "Tron": 6359,
  "Trot": 6360,
  "Troy": 6361,
  "Truc": 6362,
  "True": 6363,
  "Tube": 6364,
  "Tubs": 6365,
  "Tuby": 6366,
  "Tuck": 6367,
  "Tuft": 6368,
  "Tull": 6369,
  "Tuna": 6370,
  "Turk": 6371,
  "Turn": 6372,
  "Turt": 6373,
  "Tuto": 6374,
  "Tutu": 6375,
  "Twas": 6376,
  "Twee": 6377,
  "Twig": 6378,
  "Twin": 6379,
  "Twit": 6380,
  "Twiz": 6381,
  "Tyle": 6382,
  "Ubah": 6383,
  "Ughh": 6384,
  "Ugly": 6385,
  "Uhhh": 6386,
  "Umbi": 6387,
  "Umby": 6388,
  "Ummm": 6389,
  "Undo": 6390,
  "Unit": 6391,
  "Unny": 6392,
  "Upon": 6393,
  "Urge": 6394,
  "Ursa": 6395,
  "VERY": 6396,
  "Vace": 6397,
  "Vans": 6398,
  "Vase": 6399,
  "Vava": 6400,
  "Veil": 6401,
  "Vera": 6402,
  "Verb": 6403,
  "Vern": 6404,
  "Very": 6405,
  "Vest": 6406,
  "Vets": 6407,
  "Vick": 6408,
  "View": 6409,
  "Viki": 6410,
  "Vine": 6411,
  "Vito": 6412,
  "Vivi": 6413,
  "Voil": 6414,
  "Vote": 6415,
  "Vows": 6416,
  "WARN": 6417,
  "WHAT": 6418,
  "WOAH": 6419,
  "WOOF": 6420,
  "Wags": 6421,
  "Wahh": 6422,
  "Wait": 6423,
  "Wake": 6424,
  "Waky": 6425,
  "Walk": 6426,
  "Wall": 6427,
  "Walt": 6428,
  "Wand": 6429,
  "Want": 6430,
  "Warm": 6431,
  "Warn": 6432,
  "Wars": 6433,
  "Wash": 6434,
  "Wasn": 6435,
  "Wasp": 6436,
  "Wave": 6437,
  "Wavy": 6438,
  "Weak": 6439,
  "Wear": 6440,
  "Weee": 6441,
  "Week": 6442,
  "Weel": 6443,
  "Weep": 6444,
  "Weir": 6445,
  "Well": 6446,
  "Were": 6447,
  "West": 6448,
  "What": 6449,
  "Whee": 6450,
  "When": 6451,
  "Whew": 6452,
  "Whip": 6453,
  "Whoa": 6454,
  "Whom": 6455,
  "Whoo": 6456,
  "Whyn": 6457,
  "Wide": 6458,
  "Wife": 6459,
  "Wigs": 6460,
  "Wild": 6461,
  "Wilf": 6462,
  "Will": 6463,
  "Wilt": 6464,
  "Wind": 6465,
  "Wine": 6466,
  "Wing": 6467,
  "Wink": 6468,
  "Wipe": 6469,
  "Wire": 6470,
  "Wise": 6471,
  "Wish": 6472,
  "Wisp": 6473,
  "With": 6474,
  "Woah": 6475,
  "Wolf": 6476,
  "Wood": 6477,
  "Woof": 6478,
  "Wool": 6479,
  "Wooo": 6480,
  "Word": 6481,
  "Work": 6482,
  "Worm": 6483,
  "Wrap": 6484,
  "Wren": 6485,
  "YAWN": 6486,
  "YEAH": 6487,
  "YEHA": 6488,
  "YOGA": 6489,
  "YUCK": 6490,
  "Yaay": 6491,
  "Yana": 6492,
  "Yani": 6493,
  "Yara": 6494,
  "Yard": 6495,
  "Yarn": 6496,
  "Yarr": 6497,
  "Yash": 6498,
  "Yawn": 6499,
  "Yaya": 6500,
  "Yayy": 6501,
  "Yeah": 6502,
  "Year": 6503,
  "Yeay": 6504,
  "Yeee": 6505,
  "Yell": 6506,
  "Yelp": 6507,
  "Yema": 6508,
  "Yeow": 6509,
  "Yeth": 6510,
  "Yeti": 6511,
  "YoYo": 6512,
  "Yoga": 6513,
  "Yogi": 6514,
  "Yoko": 6515,
  "Yoky": 6516,
  "Yola": 6517,
  "Yooo": 6518,
  "Yosi": 6519,
  "Your": 6520,
  "Yoyo": 6521,
  "Yuck": 6522,
  "Yugy": 6523,
  "Yuki": 6524,
  "Yuko": 6525,
  "Yumi": 6526,
  "Yumm": 6527,
  "ZERO": 6528,
  "ZOOM": 6529,
  "ZOOP": 6530,
  "Zach": 6531,
  "Zack": 6532,
  "Zali": 6533,
  "Zane": 6534,
  "Zara": 6535,
  "Zaya": 6536,
  "Zazz": 6537,
  "Zebo": 6538,
  "Zeke": 6539,
  "Zena": 6540,
  "Zeno": 6541,
  "Zero": 6542,
  "Zeta": 6543,
  "Zeus": 6544,
  "Zing": 6545,
  "Zips": 6546,
  "Ziya": 6547,
  "Zizi": 6548,
  "Zoey": 6549,
  "Zoob": 6550,
  "Zoom": 6551,
  "Zooz": 6552,
  "Zulu": 6553,
  "Zuzu": 6554,
  "Zzzz": 6555,
  "\\âĢľ": 6556,
  "`âĢľ": 6557,
  "aahs": 6558,
  "able": 6559,
  "abra": 6560,
  "ache": 6561,
  "acid": 6562,
  "affe": 6563,
  "aged": 6564,
  "agon": 6565,
  "ahed": 6566,
  "ahhh": 6567,
  "ahhs": 6568,
  "ahoy": 6569,
  "aids": 6570,
  "ainy": 6571,
  "ange": 6572,
  "ants": 6573,
  "aren": 6574,
  "arfs": 6575,
  "aria": 6576,
  "arms": 6577,
  "arrr": 6578,
  "atar": 6579,
  "aunt": 6580,
  "away": 6581,
  "awoo": 6582,
  "awww": 6583,
  "baaa": 6584,
  "baby": 6585,
  "back": 6586,
  "bags": 6587,
  "bake": 6588,
  "bald": 6589,
  "ball": 6590,
  "bang": 6591,
  "bank": 6592,
  "bark": 6593,
  "bash": 6594,
  "bath": 6595,
  "beak": 6596,
  "bean": 6597,
  "bear": 6598,
  "beds": 6599,
  "beef": 6600,
  "been": 6601,
  "beep": 6602,
  "beer": 6603,
  "bees": 6604,
  "bell": 6605,
  "belt": 6606,
  "bend": 6607,
  "best": 6608,
  "bike": 6609,
  "bill": 6610,
  "bing": 6611,
  "bins": 6612,
  "bird": 6613,
  "bite": 6614,
  "bius": 6615,
  "blah": 6616,
  "blee": 6617,
  "bleh": 6618,
  "blip": 6619,
  "blll": 6620,
  "blog": 6621,
  "blow": 6622,
  "blub": 6623,
  "blue": 6624,
  "boat": 6625,
  "bock": 6626,
  "bomb": 6627,
  "bone": 6628,
  "bong": 6629,
  "book": 6630,
  "boom": 6631,
  "boop": 6632,
  "boos": 6633,
  "boot": 6634,
  "born": 6635,
  "both": 6636,
  "bout": 6637,
  "bowl": 6638,
  "boys": 6639,
  "brat": 6640,
  "brrr": 6641,
  "buds": 6642,
  "bugs": 6643,
  "bulb": 6644,
  "bull": 6645,
  "bump": 6646,
  "burn": 6647,
  "bury": 6648,
  "bush": 6649,
  "buzz": 6650,
  "byed": 6651,
  "byes": 6652,
  "bzzz": 6653,
  "caba": 6654,
  "cada": 6655,
  "cage": 6656,
  "cake": 6657,
  "cali": 6658,
  "call": 6659,
  "calm": 6660,
  "came": 6661,
  "camp": 6662,
  "cane": 6663,
  "cape": 6664,
  "carb": 6665,
  "card": 6666,
  "care": 6667,
  "cars": 6668,
  "cart": 6669,
  "cary": 6670,
  "case": 6671,
  "cats": 6672,
  "caty": 6673,
  "cave": 6674,
  "ceed": 6675,
  "cell": 6676,
  "cent": 6677,
  "cept": 6678,
  "cess": 6679,
  "chat": 6680,
  "chef": 6681,
  "chew": 6682,
  "chid": 6683,
  "chip": 6684,
  "chit": 6685,
  "choo": 6686,
  "chop": 6687,
  "chug": 6688,
  "cial": 6689,
  "clad": 6690,
  "clap": 6691,
  "claw": 6692,
  "clip": 6693,
  "clop": 6694,
  "club": 6695,
  "coal": 6696,
  "coat": 6697,
  "cock": 6698,
  "coin": 6699,
  "cold": 6700,
  "come": 6701,
  "cone": 6702,
  "cook": 6703,
  "cool": 6704,
  "cooo": 6705,
  "cops": 6706,
  "copy": 6707,
  "cord": 6708,
  "corn": 6709,
  "cows": 6710,
  "cozy": 6711,
  "crab": 6712,
  "crow": 6713,
  "cups": 6714,
  "cute": 6715,
  "dSam": 6716,
  "dada": 6717,
  "dare": 6718,
  "dark": 6719,
  "date": 6720,
  "dead": 6721,
  "deaf": 6722,
  "deal": 6723,
  "dear": 6724,
  "deep": 6725,
  "deer": 6726,
  "dern": 6727,
  "desk": 6728,
  "didn": 6729,
  "ding": 6730,
  "dink": 6731,
  "dino": 6732,
  "dirt": 6733,
  "dish": 6734,
  "dive": 6735,
  "doed": 6736,
  "doer": 6737,
  "does": 6738,
  "dogs": 6739,
  "doll": 6740,
  "done": 6741,
  "dong": 6742,
  "doog": 6743,
  "doom": 6744,
  "door": 6745,
  "dote": 6746,
  "dots": 6747,
  "dove": 6748,
  "down": 6749,
  "draw": 6750,
  "drew": 6751,
  "drip": 6752,
  "drop": 6753,
  "drum": 6754,
  "duck": 6755,
  "duet": 6756,
  "dull": 6757,
  "dump": 6758,
  "dust": 6759,
  "duuh": 6760,
  "each": 6761,
  "east": 6762,
  "easy": 6763,
  "echo": 6764,
  "eeeh": 6765,
  "eeek": 6766,
  "eeew": 6767,
  "eggs": 6768,
  "else": 6769,
  "ered": 6770,
  "ette": 6771,
  "even": 6772,
  "ever": 6773,
  "evil": 6774,
  "exam": 6775,
  "exit": 6776,
  "expi": 6777,
  "eyed": 6778,
  "eyes": 6779,
  "face": 6780,
  "fade": 6781,
  "fair": 6782,
  "fake": 6783,
  "fall": 6784,
  "fant": 6785,
  "farm": 6786,
  "fart": 6787,
  "fast": 6788,
  "faux": 6789,
  "fear": 6790,
  "fect": 6791,
  "feed": 6792,
  "feel": 6793,
  "feet": 6794,
  "felt": 6795,
  "file": 6796,
  "fill": 6797,
  "film": 6798,
  "find": 6799,
  "fine": 6800,
  "fing": 6801,
  "fire": 6802,
  "fish": 6803,
  "five": 6804,
  "fizz": 6805,
  "flag": 6806,
  "flap": 6807,
  "flat": 6808,
  "flea": 6809,
  "flew": 6810,
  "flop": 6811,
  "flow": 6812,
  "fold": 6813,
  "food": 6814,
  "fool": 6815,
  "foot": 6816,
  "fore": 6817,
  "fork": 6818,
  "form": 6819,
  "fort": 6820,
  "foul": 6821,
  "four": 6822,
  "frag": 6823,
  "free": 6824,
  "frog": 6825,
  "from": 6826,
  "fter": 6827,
  "fuel": 6828,
  "full": 6829,
  "gaga": 6830,
  "gain": 6831,
  "game": 6832,
  "gate": 6833,
  "gato": 6834,
  "gaze": 6835,
  "gear": 6836,
  "gems": 6837,
  "gent": 6838,
  "germ": 6839,
  "gift": 6840,
  "gile": 6841,
  "girl": 6842,
  "give": 6843,
  "glad": 6844,
  "glow": 6845,
  "glub": 6846,
  "glue": 6847,
  "glug": 6848,
  "gnat": 6849,
  "goal": 6850,
  "goat": 6851,
  "goer": 6852,
  "gold": 6853,
  "golf": 6854,
  "gone": 6855,
  "good": 6856,
  "grab": 6857,
  "gray": 6858,
  "grew": 6859,
  "grey": 6860,
  "grow": 6861,
  "grrr": 6862,
  "guns": 6863,
  "hail": 6864,
  "hair": 6865,
  "half": 6866,
  "hand": 6867,
  "hang": 6868,
  "hapy": 6869,
  "hard": 6870,
  "hate": 6871,
  "hats": 6872,
  "have": 6873,
  "head": 6874,
  "heal": 6875,
  "hear": 6876,
  "heat": 6877,
  "heel": 6878,
  "hehe": 6879,
  "held": 6880,
  "help": 6881,
  "herb": 6882,
  "here": 6883,
  "hero": 6884,
  "hide": 6885,
  "high": 6886,
  "hill": 6887,
  "hire": 6888,
  "hiss": 6889,
  "hive": 6890,
  "hola": 6891,
  "hold": 6892,
  "hole": 6893,
  "home": 6894,
  "honk": 6895,
  "hook": 6896,
  "hooo": 6897,
  "hoop": 6898,
  "hoot": 6899,
  "hope": 6900,
  "hops": 6901,
  "horn": 6902,
  "hour": 6903,
  "howl": 6904,
  "hued": 6905,
  "huff": 6906,
  "huge": 6907,
  "hugs": 6908,
  "hula": 6909,
  "hump": 6910,
  "hunt": 6911,
  "hurt": 6912,
  "hush": 6913,
  "idea": 6914,
  "inch": 6915,
  "into": 6916,
  "iron": 6917,
  "itch": 6918,
  "jail": 6919,
  "jazz": 6920,
  "jeep": 6921,
  "joan": 6922,
  "join": 6923,
  "joke": 6924,
  "jump": 6925,
  "junk": 6926,
  "just": 6927,
  "kart": 6928,
  "keep": 6929,
  "kept": 6930,
  "keys": 6931,
  "kick": 6932,
  "kids": 6933,
  "kind": 6934,
  "king": 6935,
  "kiss": 6936,
  "kite": 6937,
  "kiwi": 6938,
  "knee": 6939,
  "knit": 6940,
  "knob": 6941,
  "knot": 6942,
  "know": 6943,
  "koof": 6944,
  "lady": 6945,
  "lake": 6946,
  "lamp": 6947,
  "land": 6948,
  "lard": 6949,
  "late": 6950,
  "laws": 6951,
  "lazy": 6952,
  "lead": 6953,
  "leaf": 6954,
  "leak": 6955,
  "lean": 6956,
  "leap": 6957,
  "leek": 6958,
  "left": 6959,
  "legs": 6960,
  "lend": 6961,
  "less": 6962,
  "lets": 6963,
  "liar": 6964,
  "lick": 6965,
  "lied": 6966,
  "life": 6967,
  "lift": 6968,
  "like": 6969,
  "lily": 6970,
  "limb": 6971,
  "lime": 6972,
  "line": 6973,
  "ling": 6974,
  "link": 6975,
  "lion": 6976,
  "lish": 6977,
  "load": 6978,
  "lock": 6979,
  "long": 6980,
  "look": 6981,
  "loop": 6982,
  "lost": 6983,
  "lots": 6984,
  "loud": 6985,
  "love": 6986,
  "luck": 6987,
  "lucy": 6988,
  "lung": 6989,
  "made": 6990,
  "mail": 6991,
  "main": 6992,
  "make": 6993,
  "mama": 6994,
  "mane": 6995,
  "many": 6996,
  "mark": 6997,
  "mart": 6998,
  "mary": 6999,
  "mask": 7000,
  "mate": 7001,
  "math": 7002,
  "mean": 7003,
  "meat": 7004,
  "meep": 7005,
  "meet": 7006,
  "melt": 7007,
  "ment": 7008,
  "menu": 7009,
  "meow": 7010,
  "mess": 7011,
  "mike": 7012,
  "mild": 7013,
  "mile": 7014,
  "milk": 7015,
  "mill": 7016,
  "mind": 7017,
  "mine": 7018,
  "ming": 7019,
  "mint": 7020,
  "miss": 7021,
  "mist": 7022,
  "mmmm": 7023,
  "mole": 7024,
  "moon": 7025,
  "more": 7026,
  "move": 7027,
  "mrrr": 7028,
  "much": 7029,
  "mums": 7030,
  "nail": 7031,
  "name": 7032,
  "nana": 7033,
  "navy": 7034,
  "nbsp": 7035,
  "neat": 7036,
  "neck": 7037,
  "need": 7038,
  "ness": 7039,
  "nest": 7040,
  "news": 7041,
  "next": 7042,
  "nice": 7043,
  "nick": 7044,
  "nine": 7045,
  "none": 7046,
  "noon": 7047,
  "nose": 7048,
  "nosy": 7049,
  "note": 7050,
  "nots": 7051,
  "npsp": 7052,
  "nuts": 7053,
  "oats": 7054,
  "obey": 7055,
  "odor": 7056,
  "offs": 7057,
  "ohed": 7058,
  "oink": 7059,
  "okay": 7060,
  "olds": 7061,
  "once": 7062,
  "only": 7063,
  "oohs": 7064,
  "oooh": 7065,
  "oops": 7066,
  "open": 7067,
  "ores": 7068,
  "ouch": 7069,
  "outs": 7070,
  "oval": 7071,
  "oved": 7072,
  "oven": 7073,
  "over": 7074,
  "pack": 7075,
  "pads": 7076,
  "page": 7077,
  "paid": 7078,
  "pain": 7079,
  "pale": 7080,
  "palm": 7081,
  "papa": 7082,
  "park": 7083,
  "part": 7084,
  "pass": 7085,
  "path": 7086,
  "pawn": 7087,
  "pear": 7088,
  "peas": 7089,
  "peat": 7090,
  "peek": 7091,
  "peep": 7092,
  "peet": 7093,
  "phew": 7094,
  "phin": 7095,
  "phon": 7096,
  "phus": 7097,
  "pick": 7098,
  "pill": 7099,
  "pine": 7100,
  "ping": 7101,
  "pink": 7102,
  "pipe": 7103,
  "pire": 7104,
  "plan": 7105,
  "play": 7106,
  "plop": 7107,
  "plum": 7108,
  "plus": 7109,
  "poem": 7110,
  "poke": 7111,
  "pole": 7112,
  "poly": 7113,
  "poms": 7114,
  "pond": 7115,
  "pong": 7116,
  "pony": 7117,
  "poof": 7118,
  "pool": 7119,
  "poop": 7120,
  "poor": 7121,
  "pops": 7122,
  "port": 7123,
  "post": 7124,
  "pota": 7125,
  "pour": 7126,
  "pple": 7127,
  "pray": 7128,
  "prrr": 7129,
  "puff": 7130,
  "pull": 7131,
  "purr": 7132,
  "push": 7133,
  "puts": 7134,
  "putt": 7135,
  "quen": 7136,
  "quit": 7137,
  "quiz": 7138,
  "race": 7139,
  "raff": 7140,
  "rain": 7141,
  "ramp": 7142,
  "rang": 7143,
  "rare": 7144,
  "rate": 7145,
  "rawr": 7146,
  "rays": 7147,
  "read": 7148,
  "real": 7149,
  "reds": 7150,
  "redy": 7151,
  "reef": 7152,
  "rest": 7153,
  "rice": 7154,
  "rich": 7155,
  "ride": 7156,
  "ried": 7157,
  "ring": 7158,
  "ripe": 7159,
  "rise": 7160,
  "road": 7161,
  "roar": 7162,
  "rock": 7163,
  "roll": 7164,
  "roof": 7165,
  "rook": 7166,
  "room": 7167,
  "root": 7168,
  "rope": 7169,
  "rose": 7170,
  "rosy": 7171,
  "rrrr": 7172,
  "rude": 7173,
  "ruff": 7174,
  "rule": 7175,
  "rush": 7176,
  "sack": 7177,
  "safe": 7178,
  "said": 7179,
  "sail": 7180,
  "sake": 7181,
  "sale": 7182,
  "salt": 7183,
  "sand": 7184,
  "saur": 7185,
  "save": 7186,
  "savy": 7187,
  "saws": 7188,
  "scat": 7189,
  "sean": 7190,
  "seat": 7191,
  "seed": 7192,
  "seek": 7193,
  "seem": 7194,
  "seen": 7195,
  "self": 7196,
  "sell": 7197,
  "send": 7198,
  "sent": 7199,
  "shed": 7200,
  "shhh": 7201,
  "ship": 7202,
  "shoe": 7203,
  "shoo": 7204,
  "shop": 7205,
  "shot": 7206,
  "show": 7207,
  "shun": 7208,
  "shut": 7209,
  "sick": 7210,
  "side": 7211,
  "sigh": 7212,
  "sign": 7213,
  "silk": 7214,
  "sing": 7215,
  "sink": 7216,
  "size": 7217,
  "skin": 7218,
  "skip": 7219,
  "slap": 7220,
  "sled": 7221,
  "slip": 7222,
  "slow": 7223,
  "snap": 7224,
  "snip": 7225,
  "snow": 7226,
  "soak": 7227,
  "soap": 7228,
  "soar": 7229,
  "sock": 7230,
  "soda": 7231,
  "soft": 7232,
  "soil": 7233,
  "some": 7234,
  "song": 7235,
  "soon": 7236,
  "sort": 7237,
  "soup": 7238,
  "sour": 7239,
  "span": 7240,
  "sped": 7241,
  "spin": 7242,
  "spot": 7243,
  "ssss": 7244,
  "star": 7245,
  "stay": 7246,
  "stem": 7247,
  "step": 7248,
  "stir": 7249,
  "stop": 7250,
  "such": 7251,
  "sunk": 7252,
  "sure": 7253,
  "surf": 7254,
  "swam": 7255,
  "swan": 7256,
  "swim": 7257,
  "sync": 7258,
  "taco": 7259,
  "tact": 7260,
  "tail": 7261,
  "take": 7262,
  "tale": 7263,
  "talk": 7264,
  "tall": 7265,
  "tape": 7266,
  "taps": 7267,
  "task": 7268,
  "taxi": 7269,
  "team": 7270,
  "tear": 7271,
  "tech": 7272,
  "tell": 7273,
  "tent": 7274,
  "term": 7275,
  "test": 7276,
  "than": 7277,
  "that": 7278,
  "thaw": 7279,
  "then": 7280,
  "ther": 7281,
  "they": 7282,
  "thin": 7283,
  "this": 7284,
  "thon": 7285,
  "thru": 7286,
  "thud": 7287,
  "tick": 7288,
  "tide": 7289,
  "tidy": 7290,
  "tied": 7291,
  "tier": 7292,
  "till": 7293,
  "time": 7294,
  "ting": 7295,
  "tink": 7296,
  "tiny": 7297,
  "tion": 7298,
  "tips": 7299,
  "tire": 7300,
  "tock": 7301,
  "toed": 7302,
  "toes": 7303,
  "told": 7304,
  "tone": 7305,
  "took": 7306,
  "tool": 7307,
  "toos": 7308,
  "toot": 7309,
  "tops": 7310,
  "torn": 7311,
  "tour": 7312,
  "toys": 7313,
  "trap": 7314,
  "tray": 7315,
  "tree": 7316,
  "trip": 7317,
  "tron": 7318,
  "trot": 7319,
  "true": 7320,
  "ttle": 7321,
  "tube": 7322,
  "tuna": 7323,
  "tune": 7324,
  "turn": 7325,
  "tusk": 7326,
  "twee": 7327,
  "twig": 7328,
  "twin": 7329,
  "ugly": 7330,
  "umph": 7331,
  "undo": 7332,
  "upon": 7333,
  "urge": 7334,
  "used": 7335,
  "user": 7336,
  "vase": 7337,
  "veil": 7338,
  "vent": 7339,
  "very": 7340,
  "vest": 7341,
  "vide": 7342,
  "vies": 7343,
  "view": 7344,
  "vine": 7345,
  "visa": 7346,
  "vote": 7347,
  "wait": 7348,
  "wake": 7349,
  "walk": 7350,
  "wall": 7351,
  "wand": 7352,
  "want": 7353,
  "warm": 7354,
  "warn": 7355,
  "wash": 7356,
  "wave": 7357,
  "ways": 7358,
  "weak": 7359,
  "wear": 7360,
  "weed": 7361,
  "weee": 7362,
  "weep": 7363,
  "weet": 7364,
  "well": 7365,
  "went": 7366,
  "were": 7367,
  "west": 7368,
  "what": 7369,
  "whee": 7370,
  "when": 7371,
  "whew": 7372,
  "whip": 7373,
  "whir": 7374,
  "whoa": 7375,
  "whoo": 7376,
  "wide": 7377,
  "wife": 7378,
  "wild": 7379,
  "will": 7380,
  "wind": 7381,
  "wine": 7382,
  "wing": 7383,
  "wink": 7384,
  "wipe": 7385,
  "wire": 7386,
  "wise": 7387,
  "wish": 7388,
  "wisp": 7389,
  "with": 7390,
  "woah": 7391,
  "wolf": 7392,
  "wood": 7393,
  "woof": 7394,
  "wool": 7395,
  "wooo": 7396,
  "word": 7397,
  "work": 7398,
  "worm": 7399,
  "worn": 7400,
  "wraa": 7401,
  "wrap": 7402,
  "xico": 7403,
  "xing": 7404,
  "yaaa": 7405,
  "yard": 7406,
  "yarn": 7407,
  "yawn": 7408,
  "yead": 7409,
  "yeah": 7410,
  "year": 7411,
  "yell": 7412,
  "yoga": 7413,
  "your": 7414,
  "yous": 7415,
  "yuck": 7416,
  "zags": 7417,
  "zero": 7418,
  "zone": 7419,
  "zoom": 7420,
  "zorp": 7421,
  "zzzt": 7422,
  "zzzz": 7423,
  "~âĢĿ": 7424,
  "ÂłÂł": 7425,
  "Â¢'.": 7426,
  "âĢĬĠ": 7427,
  "âĢĭ!": 7428,
  "âĢĶ\"": 7429,
  "âĢĻ!": 7430,
  "âĢĻ,": 7431,
  "âĢĻ.": 7432,
  "âĢĻ?": 7433,
  "âĢľ.": 7434,
  "âĢĿ!": 7435,
  "âĢĿ,": 7436,
  "âĢĿ.": 7437,
  "âĢĿ?": 7438,
  "âĢ¦\"": 7439,
  "âĢ¦,": 7440,
  "âĢ¦.": 7441,
  "âĢ©Ċ": 7442,
  "ãĢĢĠ": 7443,
  "ĊĊĠĠĠ": 7444,
  "ĊĠĊĠĠ": 7445,
  "ĊĠĠĠĠ": 7446,
  "ĠĊĠĊĊ": 7447,
  "ĠĊĠĊĠ": 7448,
  "ĠĊĠĠĠ": 7449,
  "ĠĠĠĊĊ": 7450,
  "ĠĠĠĊĠ": 7451,
  "ĠĠĠĠĊ": 7452,
  "ĠĠĠĠĠ": 7453,
  "Ġ!âĢĿ": 7454,
  "Ġ\"...": 7455,
  "Ġ\"âĢľ": 7456,
  "Ġ\"âĢ¦": 7457,
  "Ġ,âĢľ": 7458,
  "Ġ-âĢľ": 7459,
  "Ġ...\"": 7460,
  "Ġ.âĢĿ": 7461,
  "Ġ1000": 7462,
  "Ġ1234": 7463,
  "Ġ1776": 7464,
  "Ġ1800": 7465,
  "Ġ1912": 7466,
  "Ġ1945": 7467,
  "Ġ1950": 7468,
  "Ġ1970": 7469,
  "Ġ1978": 7470,
  "Ġ1985": 7471,
  "Ġ1999": 7472,
  "Ġ2010": 7473,
  "Ġ2013": 7474,
  "Ġ2018": 7475,
  "Ġ2020": 7476,
  "Ġ2021": 7477,
  "Ġ3000": 7478,
  "Ġ3952": 7479,
  "Ġ5000": 7480,
  "Ġ:âĢľ": 7481,
  "Ġ?âĢĿ": 7482,
  "ĠABCD": 7483,
  "ĠABCs": 7484,
  "ĠAREA": 7485,
  "ĠAWAY": 7486,
  "ĠAara": 7487,
  "ĠAbba": 7488,
  "ĠAbbi": 7489,
  "ĠAbby": 7490,
  "ĠAbee": 7491,
  "ĠAbel": 7492,
  "ĠAbhi": 7493,
  "ĠAbie": 7494,
  "ĠAbis": 7495,
  "ĠAble": 7496,
  "ĠAbna": 7497,
  "ĠAbra": 7498,
  "ĠAcid": 7499,
  "ĠAdam": 7500,
  "ĠAdda": 7501,
  "ĠAddy": 7502,
  "ĠAdri": 7503,
  "ĠAero": 7504,
  "ĠAges": 7505,
  "ĠAggy": 7506,
  "ĠAgni": 7507,
  "ĠAhhh": 7508,
  "ĠAhle": 7509,
  "ĠAhna": 7510,
  "ĠAhoy": 7511,
  "ĠAida": 7512,
  "ĠAila": 7513,
  "ĠAimy": 7514,
  "ĠAina": 7515,
  "ĠAine": 7516,
  "ĠAira": 7517,
  "ĠAiry": 7518,
  "ĠAjay": 7519,
  "ĠAkio": 7520,
  "ĠAlan": 7521,
  "ĠAlas": 7522,
  "ĠAlba": 7523,
  "ĠAlby": 7524,
  "ĠAldo": 7525,
  "ĠAlea": 7526,
  "ĠAlec": 7527,
  "ĠAlee": 7528,
  "ĠAlex": 7529,
  "ĠAlfy": 7530,
  "ĠAlgo": 7531,
  "ĠAlia": 7532,
  "ĠAlla": 7533,
  "ĠAlli": 7534,
  "ĠAlly": 7535,
  "ĠAlma": 7536,
  "ĠAlou": 7537,
  "ĠAlso": 7538,
  "ĠAlta": 7539,
  "ĠAlwa": 7540,
  "ĠAlya": 7541,
  "ĠAlys": 7542,
  "ĠAlyx": 7543,
  "ĠAmal": 7544,
  "ĠAman": 7545,
  "ĠAmar": 7546,
  "ĠAmbi": 7547,
  "ĠAmen": 7548,
  "ĠAmie": 7549,
  "ĠAmin": 7550,
  "ĠAmir": 7551,
  "ĠAmit": 7552,
  "ĠAmmi": 7553,
  "ĠAmmy": 7554,
  "ĠAmos": 7555,
  "ĠAmys": 7556,
  "ĠAnca": 7557,
  "ĠAncy": 7558,
  "ĠAndi": 7559,
  "ĠAndy": 7560,
  "ĠAney": 7561,
  "ĠAnge": 7562,
  "ĠAnie": 7563,
  "ĠAnil": 7564,
  "ĠAnji": 7565,
  "ĠAnky": 7566,
  "ĠAnna": 7567,
  "ĠAnne": 7568,
  "ĠAnni": 7569,
  "ĠAnny": 7570,
  "ĠAnto": 7571,
  "ĠAnts": 7572,
  "ĠAnty": 7573,
  "ĠAnya": 7574,
  "ĠAona": 7575,
  "ĠAppy": 7576,
  "ĠAqua": 7577,
  "ĠArch": 7578,
  "ĠArea": 7579,
  "ĠArel": 7580,
  "ĠAren": 7581,
  "ĠArfy": 7582,
  "ĠArgh": 7583,
  "ĠAria": 7584,
  "ĠAris": 7585,
  "ĠArlo": 7586,
  "ĠArly": 7587,
  "ĠArms": 7588,
  "ĠArmy": 7589,
  "ĠArne": 7590,
  "ĠArro": 7591,
  "ĠArrr": 7592,
  "ĠArry": 7593,
  "ĠArty": 7594,
  "ĠArun": 7595,
  "ĠArya": 7596,
  "ĠAsha": 7597,
  "ĠAshy": 7598,
  "ĠAsia": 7599,
  "ĠAtop": 7600,
  "ĠAtty": 7601,
  "ĠAunt": 7602,
  "ĠAuto": 7603,
  "ĠAver": 7604,
  "ĠAvis": 7605,
  "ĠAway": 7606,
  "ĠAxel": 7607,
  "ĠAxes": 7608,
  "ĠAyla": 7609,
  "ĠAziz": 7610,
  "ĠBABY": 7611,
  "ĠBACK": 7612,
  "ĠBALL": 7613,
  "ĠBANG": 7614,
  "ĠBEEP": 7615,
  "ĠBEST": 7616,
  "ĠBFFs": 7617,
  "ĠBING": 7618,
  "ĠBITE": 7619,
  "ĠBOAT": 7620,
  "ĠBONG": 7621,
  "ĠBOOK": 7622,
  "ĠBOOM": 7623,
  "ĠBOOT": 7624,
  "ĠBOTH": 7625,
  "ĠBURN": 7626,
  "ĠBUZZ": 7627,
  "ĠBZZT": 7628,
  "ĠBaaa": 7629,
  "ĠBaba": 7630,
  "ĠBabe": 7631,
  "ĠBabs": 7632,
  "ĠBabu": 7633,
  "ĠBaby": 7634,
  "ĠBack": 7635,
  "ĠBade": 7636,
  "ĠBadi": 7637,
  "ĠBail": 7638,
  "ĠBait": 7639,
  "ĠBake": 7640,
  "ĠBaky": 7641,
  "ĠBala": 7642,
  "ĠBald": 7643,
  "ĠBall": 7644,
  "ĠBana": 7645,
  "ĠBand": 7646,
  "ĠBang": 7647,
  "ĠBank": 7648,
  "ĠBanu": 7649,
  "ĠBarb": 7650,
  "ĠBark": 7651,
  "ĠBarn": 7652,
  "ĠBars": 7653,
  "ĠBart": 7654,
  "ĠBase": 7655,
  "ĠBath": 7656,
  "ĠBats": 7657,
  "ĠBawk": 7658,
  "ĠBead": 7659,
  "ĠBeak": 7660,
  "ĠBeam": 7661,
  "ĠBean": 7662,
  "ĠBear": 7663,
  "ĠBeat": 7664,
  "ĠBeau": 7665,
  "ĠBebe": 7666,
  "ĠBebo": 7667,
  "ĠBeck": 7668,
  "ĠBeds": 7669,
  "ĠBeef": 7670,
  "ĠBeep": 7671,
  "ĠBeer": 7672,
  "ĠBees": 7673,
  "ĠBeet": 7674,
  "ĠBeka": 7675,
  "ĠBela": 7676,
  "ĠBell": 7677,
  "ĠBelt": 7678,
  "ĠBend": 7679,
  "ĠBene": 7680,
  "ĠBeni": 7681,
  "ĠBenj": 7682,
  "ĠBens": 7683,
  "ĠBent": 7684,
  "ĠBerd": 7685,
  "ĠBern": 7686,
  "ĠBert": 7687,
  "ĠBery": 7688,
  "ĠBess": 7689,
  "ĠBest": 7690,
  "ĠBeth": 7691,
  "ĠBexy": 7692,
  "ĠBhis": 7693,
  "ĠBiba": 7694,
  "ĠBibi": 7695,
  "ĠBibo": 7696,
  "ĠBiff": 7697,
  "ĠBika": 7698,
  "ĠBike": 7699,
  "ĠBiki": 7700,
  "ĠBiko": 7701,
  "ĠBill": 7702,
  "ĠBimo": 7703,
  "ĠBina": 7704,
  "ĠBing": 7705,
  "ĠBini": 7706,
  "ĠBink": 7707,
  "ĠBiny": 7708,
  "ĠBird": 7709,
  "ĠBiri": 7710,
  "ĠBite": 7711,
  "ĠBits": 7712,
  "ĠBizz": 7713,
  "ĠBlah": 7714,
  "ĠBleh": 7715,
  "ĠBlia": 7716,
  "ĠBlip": 7717,
  "ĠBlix": 7718,
  "ĠBlla": 7719,
  "ĠBlob": 7720,
  "ĠBlod": 7721,
  "ĠBlop": 7722,
  "ĠBlow": 7723,
  "ĠBlub": 7724,
  "ĠBlue": 7725,
  "ĠBlur": 7726,
  "ĠBnat": 7727,
  "ĠBoat": 7728,
  "ĠBobb": 7729,
  "ĠBobi": 7730,
  "ĠBobo": 7731,
  "ĠBobs": 7732,
  "ĠBoby": 7733,
  "ĠBodi": 7734,
  "ĠBody": 7735,
  "ĠBogo": 7736,
  "ĠBola": 7737,
  "ĠBold": 7738,
  "ĠBolt": 7739,
  "ĠBolu": 7740,
  "ĠBomb": 7741,
  "ĠBond": 7742,
  "ĠBone": 7743,
  "ĠBong": 7744,
  "ĠBono": 7745,
  "ĠBony": 7746,
  "ĠBook": 7747,
  "ĠBoom": 7748,
  "ĠBoon": 7749,
  "ĠBoop": 7750,
  "ĠBoot": 7751,
  "ĠBorn": 7752,
  "ĠBoss": 7753,
  "ĠBosy": 7754,
  "ĠBoth": 7755,
  "ĠBowl": 7756,
  "ĠBows": 7757,
  "ĠBoxy": 7758,
  "ĠBoys": 7759,
  "ĠBozo": 7760,
  "ĠBrad": 7761,
  "ĠBrae": 7762,
  "ĠBram": 7763,
  "ĠBrat": 7764,
  "ĠBray": 7765,
  "ĠBree": 7766,
  "ĠBria": 7767,
  "ĠBrie": 7768,
  "ĠBrig": 7769,
  "ĠBrin": 7770,
  "ĠBrix": 7771,
  "ĠBroc": 7772,
  "ĠBrrr": 7773,
  "ĠBrum": 7774,
  "ĠBryn": 7775,
  "ĠBubs": 7776,
  "ĠBubu": 7777,
  "ĠBuck": 7778,
  "ĠBudd": 7779,
  "ĠBuds": 7780,
  "ĠBudy": 7781,
  "ĠBuff": 7782,
  "ĠBugs": 7783,
  "ĠBulb": 7784,
  "ĠBuli": 7785,
  "ĠBull": 7786,
  "ĠBump": 7787,
  "ĠBung": 7788,
  "ĠBunn": 7789,
  "ĠBuns": 7790,
  "ĠBuoy": 7791,
  "ĠBurk": 7792,
  "ĠBurl": 7793,
  "ĠBurn": 7794,
  "ĠBurt": 7795,
  "ĠBury": 7796,
  "ĠBush": 7797,
  "ĠBusy": 7798,
  "ĠBuzz": 7799,
  "ĠByte": 7800,
  "ĠBzzt": 7801,
  "ĠBzzy": 7802,
  "ĠBzzz": 7803,
  "ĠCAKE": 7804,
  "ĠCATS": 7805,
  "ĠCHEW": 7806,
  "ĠCHOO": 7807,
  "ĠCOME": 7808,
  "ĠCUBE": 7809,
  "ĠCady": 7810,
  "ĠCafe": 7811,
  "ĠCage": 7812,
  "ĠCake": 7813,
  "ĠCaky": 7814,
  "ĠCale": 7815,
  "ĠCalf": 7816,
  "ĠCali": 7817,
  "ĠCall": 7818,
  "ĠCalm": 7819,
  "ĠCame": 7820,
  "ĠCami": 7821,
  "ĠCamp": 7822,
  "ĠCana": 7823,
  "ĠCane": 7824,
  "ĠCans": 7825,
  "ĠCape": 7826,
  "ĠCaps": 7827,
  "ĠCara": 7828,
  "ĠCard": 7829,
  "ĠCare": 7830,
  "ĠCari": 7831,
  "ĠCarl": 7832,
  "ĠCaro": 7833,
  "ĠCarp": 7834,
  "ĠCarr": 7835,
  "ĠCars": 7836,
  "ĠCart": 7837,
  "ĠCase": 7838,
  "ĠCash": 7839,
  "ĠCass": 7840,
  "ĠCast": 7841,
  "ĠCate": 7842,
  "ĠCath": 7843,
  "ĠCato": 7844,
  "ĠCats": 7845,
  "ĠCaty": 7846,
  "ĠCave": 7847,
  "ĠCece": 7848,
  "ĠCeli": 7849,
  "ĠCell": 7850,
  "ĠCent": 7851,
  "ĠCera": 7852,
  "ĠChad": 7853,
  "ĠChai": 7854,
  "ĠCham": 7855,
  "ĠChar": 7856,
  "ĠChaz": 7857,
  "ĠChee": 7858,
  "ĠChef": 7859,
  "ĠChel": 7860,
  "ĠChem": 7861,
  "ĠChen": 7862,
  "ĠChet": 7863,
  "ĠChew": 7864,
  "ĠChip": 7865,
  "ĠChlo": 7866,
  "ĠChok": 7867,
  "ĠChon": 7868,
  "ĠChoo": 7869,
  "ĠChop": 7870,
  "ĠChri": 7871,
  "ĠChub": 7872,
  "ĠChug": 7873,
  "ĠCici": 7874,
  "ĠCira": 7875,
  "ĠCity": 7876,
  "ĠClam": 7877,
  "ĠClap": 7878,
  "ĠClaw": 7879,
  "ĠClay": 7880,
  "ĠClem": 7881,
  "ĠCleo": 7882,
  "ĠClip": 7883,
  "ĠCloe": 7884,
  "ĠClub": 7885,
  "ĠClue": 7886,
  "ĠCoCo": 7887,
  "ĠCoal": 7888,
  "ĠCoat": 7889,
  "ĠCobb": 7890,
  "ĠCoby": 7891,
  "ĠCoca": 7892,
  "ĠCoco": 7893,
  "ĠCody": 7894,
  "ĠCoin": 7895,
  "ĠCoke": 7896,
  "ĠCola": 7897,
  "ĠCold": 7898,
  "ĠCole": 7899,
  "ĠColt": 7900,
  "ĠComb": 7901,
  "ĠCome": 7902,
  "ĠComo": 7903,
  "ĠCone": 7904,
  "ĠCony": 7905,
  "ĠCook": 7906,
  "ĠCool": 7907,
  "ĠCoop": 7908,
  "ĠCops": 7909,
  "ĠCopy": 7910,
  "ĠCora": 7911,
  "ĠCord": 7912,
  "ĠCorn": 7913,
  "ĠCory": 7914,
  "ĠCosy": 7915,
  "ĠCove": 7916,
  "ĠCows": 7917,
  "ĠCowy": 7918,
  "ĠCozy": 7919,
  "ĠCrab": 7920,
  "ĠCrap": 7921,
  "ĠCraw": 7922,
  "ĠCray": 7923,
  "ĠCrew": 7924,
  "ĠCrib": 7925,
  "ĠCric": 7926,
  "ĠCris": 7927,
  "ĠCroc": 7928,
  "ĠCrow": 7929,
  "ĠCruz": 7930,
  "ĠCube": 7931,
  "ĠCubs": 7932,
  "ĠCuby": 7933,
  "ĠCudy": 7934,
  "ĠCups": 7935,
  "ĠCure": 7936,
  "ĠCurl": 7937,
  "ĠCurt": 7938,
  "ĠCute": 7939,
  "ĠCuts": 7940,
  "ĠDARE": 7941,
  "ĠDEAD": 7942,
  "ĠDING": 7943,
  "ĠDOGS": 7944,
  "ĠDOLL": 7945,
  "ĠDONG": 7946,
  "ĠDVDs": 7947,
  "ĠDaan": 7948,
  "ĠDabu": 7949,
  "ĠDada": 7950,
  "ĠDadi": 7951,
  "ĠDads": 7952,
  "ĠDadu": 7953,
  "ĠDais": 7954,
  "ĠDale": 7955,
  "ĠDame": 7956,
  "ĠDami": 7957,
  "ĠDana": 7958,
  "ĠDane": 7959,
  "ĠDani": 7960,
  "ĠDany": 7961,
  "ĠDara": 7962,
  "ĠDare": 7963,
  "ĠDark": 7964,
  "ĠDash": 7965,
  "ĠData": 7966,
  "ĠDate": 7967,
  "ĠDave": 7968,
  "ĠDavy": 7969,
  "ĠDawn": 7970,
  "ĠDaya": 7971,
  "ĠDays": 7972,
  "ĠDead": 7973,
  "ĠDeaf": 7974,
  "ĠDeal": 7975,
  "ĠDean": 7976,
  "ĠDear": 7977,
  "ĠDeed": 7978,
  "ĠDeep": 7979,
  "ĠDeer": 7980,
  "ĠDeet": 7981,
  "ĠDeja": 7982,
  "ĠDeli": 7983,
  "ĠDell": 7984,
  "ĠDemi": 7985,
  "ĠDemy": 7986,
  "ĠDena": 7987,
  "ĠDeni": 7988,
  "ĠDeon": 7989,
  "ĠDesi": 7990,
  "ĠDesk": 7991,
  "ĠDevi": 7992,
  "ĠDiDi": 7993,
  "ĠDibs": 7994,
  "ĠDice": 7995,
  "ĠDick": 7996,
  "ĠDidi": 7997,
  "ĠDidn": 7998,
  "ĠDill": 7999,
  "ĠDime": 8000,
  "ĠDina": 8001,
  "ĠDing": 8002,
  "ĠDink": 8003,
  "ĠDino": 8004,
  "ĠDirk": 8005,
  "ĠDirt": 8006,
  "ĠDish": 8007,
  "ĠDiva": 8008,
  "ĠDive": 8009,
  "ĠDiya": 8010,
  "ĠDodi": 8011,
  "ĠDodo": 8012,
  "ĠDoer": 8013,
  "ĠDoes": 8014,
  "ĠDogo": 8015,
  "ĠDogs": 8016,
  "ĠDoll": 8017,
  "ĠDona": 8018,
  "ĠDone": 8019,
  "ĠDong": 8020,
  "ĠDoom": 8021,
  "ĠDoor": 8022,
  "ĠDora": 8023,
  "ĠDori": 8024,
  "ĠDory": 8025,
  "ĠDote": 8026,
  "ĠDots": 8027,
  "ĠDoug": 8028,
  "ĠDove": 8029,
  "ĠDown": 8030,
  "ĠDozy": 8031,
  "ĠDraw": 8032,
  "ĠDrew": 8033,
  "ĠDrip": 8034,
  "ĠDrop": 8035,
  "ĠDrum": 8036,
  "ĠDuck": 8037,
  "ĠDudi": 8038,
  "ĠDudu": 8039,
  "ĠDuke": 8040,
  "ĠDull": 8041,
  "ĠDumb": 8042,
  "ĠDunn": 8043,
  "ĠDusk": 8044,
  "ĠDust": 8045,
  "ĠELSE": 8046,
  "ĠEVER": 8047,
  "ĠEXIT": 8048,
  "ĠEach": 8049,
  "ĠEarl": 8050,
  "ĠEarn": 8051,
  "ĠEars": 8052,
  "ĠEast": 8053,
  "ĠEasy": 8054,
  "ĠEcho": 8055,
  "ĠEddy": 8056,
  "ĠEden": 8057,
  "ĠEdge": 8058,
  "ĠEdie": 8059,
  "ĠEdit": 8060,
  "ĠEdna": 8061,
  "ĠEeek": 8062,
  "ĠEgga": 8063,
  "ĠEggs": 8064,
  "ĠEggy": 8065,
  "ĠEgon": 8066,
  "ĠElan": 8067,
  "ĠElby": 8068,
  "ĠElda": 8069,
  "ĠElen": 8070,
  "ĠElfy": 8071,
  "ĠElie": 8072,
  "ĠElin": 8073,
  "ĠElki": 8074,
  "ĠElla": 8075,
  "ĠElle": 8076,
  "ĠElli": 8077,
  "ĠElly": 8078,
  "ĠElma": 8079,
  "ĠElmo": 8080,
  "ĠEloh": 8081,
  "ĠElsa": 8082,
  "ĠElse": 8083,
  "ĠElsy": 8084,
  "ĠElvy": 8085,
  "ĠElza": 8086,
  "ĠEmil": 8087,
  "ĠEmla": 8088,
  "ĠEmma": 8089,
  "ĠEmme": 8090,
  "ĠEmmi": 8091,
  "ĠEmmo": 8092,
  "ĠEmmy": 8093,
  "ĠEngy": 8094,
  "ĠEnid": 8095,
  "ĠEnny": 8096,
  "ĠEnor": 8097,
  "ĠEnvy": 8098,
  "ĠEnzo": 8099,
  "ĠEppy": 8100,
  "ĠEren": 8101,
  "ĠEric": 8102,
  "ĠErik": 8103,
  "ĠErin": 8104,
  "ĠErny": 8105,
  "ĠEron": 8106,
  "ĠEsha": 8107,
  "ĠEsme": 8108,
  "ĠEtna": 8109,
  "ĠEtta": 8110,
  "ĠEvan": 8111,
  "ĠEven": 8112,
  "ĠEver": 8113,
  "ĠEvey": 8114,
  "ĠEvie": 8115,
  "ĠEvil": 8116,
  "ĠEwan": 8117,
  "ĠEwie": 8118,
  "ĠEwww": 8119,
  "ĠExam": 8120,
  "ĠExit": 8121,
  "ĠEyes": 8122,
  "ĠEzie": 8123,
  "ĠEzra": 8124,
  "ĠFFFF": 8125,
  "ĠFILM": 8126,
  "ĠFIND": 8127,
  "ĠFINE": 8128,
  "ĠFROG": 8129,
  "ĠFROM": 8130,
  "ĠFUEL": 8131,
  "ĠFULL": 8132,
  "ĠFace": 8133,
  "ĠFafa": 8134,
  "ĠFair": 8135,
  "ĠFake": 8136,
  "ĠFaky": 8137,
  "ĠFala": 8138,
  "ĠFall": 8139,
  "ĠFang": 8140,
  "ĠFans": 8141,
  "ĠFara": 8142,
  "ĠFarm": 8143,
  "ĠFaru": 8144,
  "ĠFast": 8145,
  "ĠFawn": 8146,
  "ĠFaye": 8147,
  "ĠFear": 8148,
  "ĠFeeb": 8149,
  "ĠFeed": 8150,
  "ĠFeel": 8151,
  "ĠFeet": 8152,
  "ĠFelt": 8153,
  "ĠFerd": 8154,
  "ĠFern": 8155,
  "ĠFest": 8156,
  "ĠFiFi": 8157,
  "ĠFibi": 8158,
  "ĠFido": 8159,
  "ĠFifi": 8160,
  "ĠFigo": 8161,
  "ĠFile": 8162,
  "ĠFili": 8163,
  "ĠFill": 8164,
  "ĠFilm": 8165,
  "ĠFina": 8166,
  "ĠFind": 8167,
  "ĠFine": 8168,
  "ĠFinn": 8169,
  "ĠFins": 8170,
  "ĠFira": 8171,
  "ĠFire": 8172,
  "ĠFish": 8173,
  "ĠFits": 8174,
  "ĠFitz": 8175,
  "ĠFive": 8176,
  "ĠFixy": 8177,
  "ĠFizz": 8178,
  "ĠFlag": 8179,
  "ĠFlam": 8180,
  "ĠFlap": 8181,
  "ĠFlea": 8182,
  "ĠFlee": 8183,
  "ĠFlex": 8184,
  "ĠFlic": 8185,
  "ĠFlip": 8186,
  "ĠFlit": 8187,
  "ĠFlix": 8188,
  "ĠFlop": 8189,
  "ĠFlow": 8190,
  "ĠFlur": 8191,
  "ĠFlux": 8192,
  "ĠFoam": 8193,
  "ĠFold": 8194,
  "ĠFolk": 8195,
  "ĠFood": 8196,
  "ĠFool": 8197,
  "ĠFoop": 8198,
  "ĠFoot": 8199,
  "ĠFord": 8200,
  "ĠFork": 8201,
  "ĠFort": 8202,
  "ĠFour": 8203,
  "ĠFoxy": 8204,
  "ĠFran": 8205,
  "ĠFraz": 8206,
  "ĠFred": 8207,
  "ĠFree": 8208,
  "ĠFrog": 8209,
  "ĠFrom": 8210,
  "ĠFuel": 8211,
  "ĠFufu": 8212,
  "ĠFull": 8213,
  "ĠFund": 8214,
  "ĠFung": 8215,
  "ĠFury": 8216,
  "ĠFuzz": 8217,
  "ĠFynn": 8218,
  "ĠGAIN": 8219,
  "ĠGAME": 8220,
  "ĠGOLD": 8221,
  "ĠGOOD": 8222,
  "ĠGabe": 8223,
  "ĠGaby": 8224,
  "ĠGaga": 8225,
  "ĠGage": 8226,
  "ĠGail": 8227,
  "ĠGain": 8228,
  "ĠGale": 8229,
  "ĠGame": 8230,
  "ĠGary": 8231,
  "ĠGate": 8232,
  "ĠGato": 8233,
  "ĠGaty": 8234,
  "ĠGaze": 8235,
  "ĠGear": 8236,
  "ĠGeko": 8237,
  "ĠGema": 8238,
  "ĠGems": 8239,
  "ĠGene": 8240,
  "ĠGeno": 8241,
  "ĠGert": 8242,
  "ĠGift": 8243,
  "ĠGiga": 8244,
  "ĠGigi": 8245,
  "ĠGill": 8246,
  "ĠGina": 8247,
  "ĠGini": 8248,
  "ĠGino": 8249,
  "ĠGiri": 8250,
  "ĠGirl": 8251,
  "ĠGive": 8252,
  "ĠGlad": 8253,
  "ĠGleb": 8254,
  "ĠGlee": 8255,
  "ĠGlen": 8256,
  "ĠGlib": 8257,
  "ĠGlim": 8258,
  "ĠGlip": 8259,
  "ĠGlow": 8260,
  "ĠGlub": 8261,
  "ĠGlue": 8262,
  "ĠGlug": 8263,
  "ĠGlum": 8264,
  "ĠGoal": 8265,
  "ĠGoat": 8266,
  "ĠGods": 8267,
  "ĠGogh": 8268,
  "ĠGogi": 8269,
  "ĠGogo": 8270,
  "ĠGola": 8271,
  "ĠGold": 8272,
  "ĠGolf": 8273,
  "ĠGoli": 8274,
  "ĠGone": 8275,
  "ĠGood": 8276,
  "ĠGork": 8277,
  "ĠGoro": 8278,
  "ĠGorp": 8279,
  "ĠGort": 8280,
  "ĠGosh": 8281,
  "ĠGoya": 8282,
  "ĠGraa": 8283,
  "ĠGrab": 8284,
  "ĠGrae": 8285,
  "ĠGram": 8286,
  "ĠGran": 8287,
  "ĠGray": 8288,
  "ĠGreg": 8289,
  "ĠGrey": 8290,
  "ĠGrin": 8291,
  "ĠGrom": 8292,
  "ĠGrow": 8293,
  "ĠGrrr": 8294,
  "ĠGrum": 8295,
  "ĠGuli": 8296,
  "ĠGulp": 8297,
  "ĠGums": 8298,
  "ĠGuns": 8299,
  "ĠGuri": 8300,
  "ĠGurt": 8301,
  "ĠGuru": 8302,
  "ĠGuys": 8303,
  "ĠGwen": 8304,
  "ĠGyan": 8305,
  "ĠHANG": 8306,
  "ĠHATE": 8307,
  "ĠHAVE": 8308,
  "ĠHELP": 8309,
  "ĠHERE": 8310,
  "ĠHOME": 8311,
  "ĠHONK": 8312,
  "ĠHUGE": 8313,
  "ĠHack": 8314,
  "ĠHaha": 8315,
  "ĠHail": 8316,
  "ĠHair": 8317,
  "ĠHale": 8318,
  "ĠHalf": 8319,
  "ĠHali": 8320,
  "ĠHall": 8321,
  "ĠHana": 8322,
  "ĠHand": 8323,
  "ĠHang": 8324,
  "ĠHani": 8325,
  "ĠHank": 8326,
  "ĠHans": 8327,
  "ĠHapi": 8328,
  "ĠHard": 8329,
  "ĠHare": 8330,
  "ĠHari": 8331,
  "ĠHarm": 8332,
  "ĠHaru": 8333,
  "ĠHash": 8334,
  "ĠHasn": 8335,
  "ĠHate": 8336,
  "ĠHats": 8337,
  "ĠHave": 8338,
  "ĠHawk": 8339,
  "ĠHead": 8340,
  "ĠHeal": 8341,
  "ĠHear": 8342,
  "ĠHeat": 8343,
  "ĠHeba": 8344,
  "ĠHeed": 8345,
  "ĠHeel": 8346,
  "ĠHehe": 8347,
  "ĠHeli": 8348,
  "ĠHelo": 8349,
  "ĠHelp": 8350,
  "ĠHema": 8351,
  "ĠHera": 8352,
  "ĠHerb": 8353,
  "ĠHere": 8354,
  "ĠHero": 8355,
  "ĠHers": 8356,
  "ĠHide": 8357,
  "ĠHidy": 8358,
  "ĠHigh": 8359,
  "ĠHill": 8360,
  "ĠHina": 8361,
  "ĠHire": 8362,
  "ĠHiro": 8363,
  "ĠHisa": 8364,
  "ĠHiss": 8365,
  "ĠHive": 8366,
  "ĠHmmm": 8367,
  "ĠHogo": 8368,
  "ĠHoho": 8369,
  "ĠHola": 8370,
  "ĠHold": 8371,
  "ĠHole": 8372,
  "ĠHome": 8373,
  "ĠHonk": 8374,
  "ĠHood": 8375,
  "ĠHoof": 8376,
  "ĠHook": 8377,
  "ĠHoop": 8378,
  "ĠHoot": 8379,
  "ĠHopa": 8380,
  "ĠHope": 8381,
  "ĠHops": 8382,
  "ĠHorn": 8383,
  "ĠHose": 8384,
  "ĠHour": 8385,
  "ĠHowl": 8386,
  "ĠHuey": 8387,
  "ĠHuge": 8388,
  "ĠHugh": 8389,
  "ĠHugo": 8390,
  "ĠHugs": 8391,
  "ĠHula": 8392,
  "ĠHunt": 8393,
  "ĠHurt": 8394,
  "ĠHush": 8395,
  "ĠHwee": 8396,
  "ĠHyle": 8397,
  "ĠICBM": 8398,
  "ĠIara": 8399,
  "ĠIcey": 8400,
  "ĠIdea": 8401,
  "ĠIggy": 8402,
  "ĠIglu": 8403,
  "ĠIgor": 8404,
  "ĠIlsa": 8405,
  "ĠImmy": 8406,
  "ĠImpy": 8407,
  "ĠInch": 8408,
  "ĠIndy": 8409,
  "ĠInes": 8410,
  "ĠInky": 8411,
  "ĠInny": 8412,
  "ĠInto": 8413,
  "ĠIona": 8414,
  "ĠIraq": 8415,
  "ĠIris": 8416,
  "ĠIrma": 8417,
  "ĠIron": 8418,
  "ĠIsha": 8419,
  "ĠIsla": 8420,
  "ĠIssa": 8421,
  "ĠIssy": 8422,
  "ĠIsty": 8423,
  "ĠItch": 8424,
  "ĠItsy": 8425,
  "ĠItto": 8426,
  "ĠItty": 8427,
  "ĠIvan": 8428,
  "ĠIzzi": 8429,
  "ĠIzzy": 8430,
  "ĠJACK": 8431,
  "ĠJEEP": 8432,
  "ĠJILL": 8433,
  "ĠJIll": 8434,
  "ĠJaak": 8435,
  "ĠJabu": 8436,
  "ĠJace": 8437,
  "ĠJack": 8438,
  "ĠJacy": 8439,
  "ĠJada": 8440,
  "ĠJade": 8441,
  "ĠJail": 8442,
  "ĠJain": 8443,
  "ĠJake": 8444,
  "ĠJaki": 8445,
  "ĠJami": 8446,
  "ĠJamo": 8447,
  "ĠJana": 8448,
  "ĠJane": 8449,
  "ĠJang": 8450,
  "ĠJany": 8451,
  "ĠJars": 8452,
  "ĠJase": 8453,
  "ĠJash": 8454,
  "ĠJaws": 8455,
  "ĠJaxi": 8456,
  "ĠJaya": 8457,
  "ĠJazz": 8458,
  "ĠJean": 8459,
  "ĠJeck": 8460,
  "ĠJedd": 8461,
  "ĠJeep": 8462,
  "ĠJeev": 8463,
  "ĠJeff": 8464,
  "ĠJeli": 8465,
  "ĠJell": 8466,
  "ĠJelo": 8467,
  "ĠJema": 8468,
  "ĠJemo": 8469,
  "ĠJems": 8470,
  "ĠJena": 8471,
  "ĠJeni": 8472,
  "ĠJenn": 8473,
  "ĠJeny": 8474,
  "ĠJesi": 8475,
  "ĠJess": 8476,
  "ĠJeth": 8477,
  "ĠJets": 8478,
  "ĠJett": 8479,
  "ĠJhon": 8480,
  "ĠJill": 8481,
  "ĠJimi": 8482,
  "ĠJims": 8483,
  "ĠJimy": 8484,
  "ĠJina": 8485,
  "ĠJing": 8486,
  "ĠJoJo": 8487,
  "ĠJoan": 8488,
  "ĠJobe": 8489,
  "ĠJobs": 8490,
  "ĠJoby": 8491,
  "ĠJock": 8492,
  "ĠJodi": 8493,
  "ĠJody": 8494,
  "ĠJoel": 8495,
  "ĠJoes": 8496,
  "ĠJoey": 8497,
  "ĠJohn": 8498,
  "ĠJoin": 8499,
  "ĠJoji": 8500,
  "ĠJojo": 8501,
  "ĠJoke": 8502,
  "ĠJoki": 8503,
  "ĠJoky": 8504,
  "ĠJomi": 8505,
  "ĠJone": 8506,
  "ĠJoni": 8507,
  "ĠJony": 8508,
  "ĠJoon": 8509,
  "ĠJory": 8510,
  "ĠJose": 8511,
  "ĠJosh": 8512,
  "ĠJovi": 8513,
  "ĠJoys": 8514,
  "ĠJuJu": 8515,
  "ĠJuan": 8516,
  "ĠJudd": 8517,
  "ĠJude": 8518,
  "ĠJudi": 8519,
  "ĠJudy": 8520,
  "ĠJugs": 8521,
  "ĠJuju": 8522,
  "ĠJula": 8523,
  "ĠJuli": 8524,
  "ĠJuly": 8525,
  "ĠJump": 8526,
  "ĠJune": 8527,
  "ĠJuni": 8528,
  "ĠJunk": 8529,
  "ĠJuno": 8530,
  "ĠJust": 8531,
  "ĠKEEP": 8532,
  "ĠKITE": 8533,
  "ĠKNOW": 8534,
  "ĠKace": 8535,
  "ĠKadi": 8536,
  "ĠKady": 8537,
  "ĠKaia": 8538,
  "ĠKain": 8539,
  "ĠKaio": 8540,
  "ĠKais": 8541,
  "ĠKaja": 8542,
  "ĠKala": 8543,
  "ĠKale": 8544,
  "ĠKali": 8545,
  "ĠKami": 8546,
  "ĠKane": 8547,
  "ĠKani": 8548,
  "ĠKara": 8549,
  "ĠKari": 8550,
  "ĠKarl": 8551,
  "ĠKary": 8552,
  "ĠKata": 8553,
  "ĠKate": 8554,
  "ĠKath": 8555,
  "ĠKati": 8556,
  "ĠKato": 8557,
  "ĠKaty": 8558,
  "ĠKavu": 8559,
  "ĠKaya": 8560,
  "ĠKaye": 8561,
  "ĠKean": 8562,
  "ĠKeem": 8563,
  "ĠKeen": 8564,
  "ĠKeep": 8565,
  "ĠKent": 8566,
  "ĠKeon": 8567,
  "ĠKera": 8568,
  "ĠKeri": 8569,
  "ĠKeti": 8570,
  "ĠKeya": 8571,
  "ĠKeys": 8572,
  "ĠKhan": 8573,
  "ĠKick": 8574,
  "ĠKids": 8575,
  "ĠKien": 8576,
  "ĠKiki": 8577,
  "ĠKiko": 8578,
  "ĠKimi": 8579,
  "ĠKimo": 8580,
  "ĠKind": 8581,
  "ĠKing": 8582,
  "ĠKira": 8583,
  "ĠKiri": 8584,
  "ĠKirk": 8585,
  "ĠKisa": 8586,
  "ĠKiss": 8587,
  "ĠKite": 8588,
  "ĠKiti": 8589,
  "ĠKito": 8590,
  "ĠKiwi": 8591,
  "ĠKiya": 8592,
  "ĠKleo": 8593,
  "ĠKnee": 8594,
  "ĠKnew": 8595,
  "ĠKnit": 8596,
  "ĠKnob": 8597,
  "ĠKnot": 8598,
  "ĠKnow": 8599,
  "ĠKobo": 8600,
  "ĠKoda": 8601,
  "ĠKody": 8602,
  "ĠKoki": 8603,
  "ĠKoko": 8604,
  "ĠKola": 8605,
  "ĠKoni": 8606,
  "ĠKook": 8607,
  "ĠKora": 8608,
  "ĠKory": 8609,
  "ĠKota": 8610,
  "ĠKraa": 8611,
  "ĠKris": 8612,
  "ĠKumi": 8613,
  "ĠKurt": 8614,
  "ĠKyla": 8615,
  "ĠKyle": 8616,
  "ĠKyra": 8617,
  "ĠLEAF": 8618,
  "ĠLEAK": 8619,
  "ĠLEGO": 8620,
  "ĠLILA": 8621,
  "ĠLILY": 8622,
  "ĠLION": 8623,
  "ĠLONG": 8624,
  "ĠLOOK": 8625,
  "ĠLOVE": 8626,
  "ĠLUcy": 8627,
  "ĠLabs": 8628,
  "ĠLaci": 8629,
  "ĠLacy": 8630,
  "ĠLady": 8631,
  "ĠLaia": 8632,
  "ĠLaid": 8633,
  "ĠLake": 8634,
  "ĠLala": 8635,
  "ĠLale": 8636,
  "ĠLali": 8637,
  "ĠLalu": 8638,
  "ĠLamb": 8639,
  "ĠLamp": 8640,
  "ĠLana": 8641,
  "ĠLand": 8642,
  "ĠLane": 8643,
  "ĠLani": 8644,
  "ĠLara": 8645,
  "ĠLark": 8646,
  "ĠLars": 8647,
  "ĠLast": 8648,
  "ĠLate": 8649,
  "ĠLava": 8650,
  "ĠLaws": 8651,
  "ĠLazy": 8652,
  "ĠLead": 8653,
  "ĠLeaf": 8654,
  "ĠLeah": 8655,
  "ĠLeak": 8656,
  "ĠLean": 8657,
  "ĠLeap": 8658,
  "ĠLeen": 8659,
  "ĠLeft": 8660,
  "ĠLego": 8661,
  "ĠLegs": 8662,
  "ĠLeia": 8663,
  "ĠLela": 8664,
  "ĠLelu": 8665,
  "ĠLena": 8666,
  "ĠLend": 8667,
  "ĠLeni": 8668,
  "ĠLenn": 8669,
  "ĠLeon": 8670,
  "ĠLess": 8671,
  "ĠLeti": 8672,
  "ĠLets": 8673,
  "ĠLevi": 8674,
  "ĠLexa": 8675,
  "ĠLexi": 8676,
  "ĠLeya": 8677,
  "ĠLiLi": 8678,
  "ĠLiam": 8679,
  "ĠLian": 8680,
  "ĠLiar": 8681,
  "ĠLies": 8682,
  "ĠLife": 8683,
  "ĠLift": 8684,
  "ĠLike": 8685,
  "ĠLila": 8686,
  "ĠLili": 8687,
  "ĠLill": 8688,
  "ĠLilo": 8689,
  "ĠLilu": 8690,
  "ĠLilv": 8691,
  "ĠLily": 8692,
  "ĠLimb": 8693,
  "ĠLime": 8694,
  "ĠLina": 8695,
  "ĠLine": 8696,
  "ĠLing": 8697,
  "ĠLink": 8698,
  "ĠLinn": 8699,
  "ĠLino": 8700,
  "ĠLion": 8701,
  "ĠLipp": 8702,
  "ĠLips": 8703,
  "ĠLisa": 8704,
  "ĠLise": 8705,
  "ĠLiss": 8706,
  "ĠLisy": 8707,
  "ĠLita": 8708,
  "ĠLive": 8709,
  "ĠLivy": 8710,
  "ĠLiya": 8711,
  "ĠLiza": 8712,
  "ĠLizz": 8713,
  "ĠLoad": 8714,
  "ĠLobo": 8715,
  "ĠLock": 8716,
  "ĠLogs": 8717,
  "ĠLois": 8718,
  "ĠLoki": 8719,
  "ĠLola": 8720,
  "ĠLoli": 8721,
  "ĠLolo": 8722,
  "ĠLoly": 8723,
  "ĠLoma": 8724,
  "ĠLong": 8725,
  "ĠLoni": 8726,
  "ĠLook": 8727,
  "ĠLoop": 8728,
  "ĠLora": 8729,
  "ĠLord": 8730,
  "ĠLori": 8731,
  "ĠLorn": 8732,
  "ĠLose": 8733,
  "ĠLost": 8734,
  "ĠLots": 8735,
  "ĠLoud": 8736,
  "ĠLove": 8737,
  "ĠLuLu": 8738,
  "ĠLuba": 8739,
  "ĠLuca": 8740,
  "ĠLuce": 8741,
  "ĠLuci": 8742,
  "ĠLuck": 8743,
  "ĠLucy": 8744,
  "ĠLuis": 8745,
  "ĠLuka": 8746,
  "ĠLuke": 8747,
  "ĠLuki": 8748,
  "ĠLula": 8749,
  "ĠLuli": 8750,
  "ĠLulu": 8751,
  "ĠLumi": 8752,
  "ĠLuna": 8753,
  "ĠLung": 8754,
  "ĠLupe": 8755,
  "ĠLupo": 8756,
  "ĠLush": 8757,
  "ĠLuvy": 8758,
  "ĠLuxy": 8759,
  "ĠLuzy": 8760,
  "ĠLyca": 8761,
  "ĠLyla": 8762,
  "ĠLyle": 8763,
  "ĠLyly": 8764,
  "ĠLynn": 8765,
  "ĠLyra": 8766,
  "ĠMAKE": 8767,
  "ĠMEOW": 8768,
  "ĠMESS": 8769,
  "ĠMICE": 8770,
  "ĠMIND": 8771,
  "ĠMINE": 8772,
  "ĠMORE": 8773,
  "ĠMUST": 8774,
  "ĠMaci": 8775,
  "ĠMack": 8776,
  "ĠMacy": 8777,
  "ĠMadd": 8778,
  "ĠMade": 8779,
  "ĠMadi": 8780,
  "ĠMads": 8781,
  "ĠMadu": 8782,
  "ĠMags": 8783,
  "ĠMaia": 8784,
  "ĠMail": 8785,
  "ĠMain": 8786,
  "ĠMaja": 8787,
  "ĠMake": 8788,
  "ĠMaki": 8789,
  "ĠMala": 8790,
  "ĠMale": 8791,
  "ĠMali": 8792,
  "ĠMall": 8793,
  "ĠMalu": 8794,
  "ĠMaly": 8795,
  "ĠMama": 8796,
  "ĠMami": 8797,
  "ĠMamu": 8798,
  "ĠMana": 8799,
  "ĠMane": 8800,
  "ĠMani": 8801,
  "ĠManu": 8802,
  "ĠMany": 8803,
  "ĠMaps": 8804,
  "ĠMara": 8805,
  "ĠMarb": 8806,
  "ĠMarc": 8807,
  "ĠMare": 8808,
  "ĠMari": 8809,
  "ĠMark": 8810,
  "ĠMars": 8811,
  "ĠMart": 8812,
  "ĠMarv": 8813,
  "ĠMary": 8814,
  "ĠMask": 8815,
  "ĠMate": 8816,
  "ĠMath": 8817,
  "ĠMati": 8818,
  "ĠMato": 8819,
  "ĠMats": 8820,
  "ĠMatt": 8821,
  "ĠMaty": 8822,
  "ĠMaud": 8823,
  "ĠMaxa": 8824,
  "ĠMaxi": 8825,
  "ĠMaxy": 8826,
  "ĠMaya": 8827,
  "ĠMaze": 8828,
  "ĠMazi": 8829,
  "ĠMcch": 8830,
  "ĠMeal": 8831,
  "ĠMean": 8832,
  "ĠMeat": 8833,
  "ĠMeep": 8834,
  "ĠMeet": 8835,
  "ĠMela": 8836,
  "ĠMelt": 8837,
  "ĠMena": 8838,
  "ĠMenu": 8839,
  "ĠMeow": 8840,
  "ĠMera": 8841,
  "ĠMeri": 8842,
  "ĠMerk": 8843,
  "ĠMery": 8844,
  "ĠMess": 8845,
  "ĠMeta": 8846,
  "ĠMeto": 8847,
  "ĠMeva": 8848,
  "ĠMiah": 8849,
  "ĠMiao": 8850,
  "ĠMica": 8851,
  "ĠMice": 8852,
  "ĠMick": 8853,
  "ĠMidi": 8854,
  "ĠMigo": 8855,
  "ĠMijo": 8856,
  "ĠMika": 8857,
  "ĠMike": 8858,
  "ĠMiki": 8859,
  "ĠMiko": 8860,
  "ĠMiku": 8861,
  "ĠMila": 8862,
  "ĠMild": 8863,
  "ĠMile": 8864,
  "ĠMilk": 8865,
  "ĠMill": 8866,
  "ĠMilo": 8867,
  "ĠMily": 8868,
  "ĠMimi": 8869,
  "ĠMims": 8870,
  "ĠMina": 8871,
  "ĠMind": 8872,
  "ĠMine": 8873,
  "ĠMing": 8874,
  "ĠMinh": 8875,
  "ĠMini": 8876,
  "ĠMink": 8877,
  "ĠMinn": 8878,
  "ĠMino": 8879,
  "ĠMint": 8880,
  "ĠMinu": 8881,
  "ĠMira": 8882,
  "ĠMiri": 8883,
  "ĠMisa": 8884,
  "ĠMisi": 8885,
  "ĠMiss": 8886,
  "ĠMist": 8887,
  "ĠMita": 8888,
  "ĠMite": 8889,
  "ĠMitt": 8890,
  "ĠMixy": 8891,
  "ĠMmmm": 8892,
  "ĠMoJo": 8893,
  "ĠMoby": 8894,
  "ĠMody": 8895,
  "ĠMogo": 8896,
  "ĠMojo": 8897,
  "ĠMoka": 8898,
  "ĠMoki": 8899,
  "ĠMoko": 8900,
  "ĠMola": 8901,
  "ĠMold": 8902,
  "ĠMole": 8903,
  "ĠMoll": 8904,
  "ĠMolo": 8905,
  "ĠMoly": 8906,
  "ĠMoma": 8907,
  "ĠMomk": 8908,
  "ĠMomo": 8909,
  "ĠMoms": 8910,
  "ĠMomy": 8911,
  "ĠMona": 8912,
  "ĠMoni": 8913,
  "ĠMono": 8914,
  "ĠMonu": 8915,
  "ĠMood": 8916,
  "ĠMoon": 8917,
  "ĠMooo": 8918,
  "ĠMops": 8919,
  "ĠMopy": 8920,
  "ĠMora": 8921,
  "ĠMore": 8922,
  "ĠMorg": 8923,
  "ĠMoss": 8924,
  "ĠMost": 8925,
  "ĠMoto": 8926,
  "ĠMove": 8927,
  "ĠMuch": 8928,
  "ĠMuck": 8929,
  "ĠMudd": 8930,
  "ĠMugs": 8931,
  "ĠMule": 8932,
  "ĠMumi": 8933,
  "ĠMums": 8934,
  "ĠMumy": 8935,
  "ĠMust": 8936,
  "ĠMutt": 8937,
  "ĠMwah": 8938,
  "ĠMyke": 8939,
  "ĠMyli": 8940,
  "ĠMyra": 8941,
  "ĠNASA": 8942,
  "ĠNEED": 8943,
  "ĠNEWS": 8944,
  "ĠNaan": 8945,
  "ĠNaia": 8946,
  "ĠNail": 8947,
  "ĠNala": 8948,
  "ĠName": 8949,
  "ĠNami": 8950,
  "ĠNana": 8951,
  "ĠNani": 8952,
  "ĠNano": 8953,
  "ĠNanu": 8954,
  "ĠNaps": 8955,
  "ĠNara": 8956,
  "ĠNata": 8957,
  "ĠNate": 8958,
  "ĠNavi": 8959,
  "ĠNavy": 8960,
  "ĠNaya": 8961,
  "ĠNear": 8962,
  "ĠNeat": 8963,
  "ĠNeck": 8964,
  "ĠNeed": 8965,
  "ĠNeee": 8966,
  "ĠNeep": 8967,
  "ĠNeha": 8968,
  "ĠNeil": 8969,
  "ĠNell": 8970,
  "ĠNemo": 8971,
  "ĠNena": 8972,
  "ĠNera": 8973,
  "ĠNerf": 8974,
  "ĠNero": 8975,
  "ĠNest": 8976,
  "ĠNets": 8977,
  "ĠNeva": 8978,
  "ĠNeve": 8979,
  "ĠNews": 8980,
  "ĠNext": 8981,
  "ĠNibs": 8982,
  "ĠNice": 8983,
  "ĠNick": 8984,
  "ĠNico": 8985,
  "ĠNike": 8986,
  "ĠNiki": 8987,
  "ĠNiko": 8988,
  "ĠNila": 8989,
  "ĠNile": 8990,
  "ĠNina": 8991,
  "ĠNine": 8992,
  "ĠNino": 8993,
  "ĠNisa": 8994,
  "ĠNita": 8995,
  "ĠNoNo": 8996,
  "ĠNoah": 8997,
  "ĠNoel": 8998,
  "ĠNoir": 8999,
  "ĠNola": 9000,
  "ĠNoli": 9001,
  "ĠNona": 9002,
  "ĠNone": 9003,
  "ĠNoni": 9004,
  "ĠNono": 9005,
  "ĠNoon": 9006,
  "ĠNora": 9007,
  "ĠNori": 9008,
  "ĠNorm": 9009,
  "ĠNort": 9010,
  "ĠNose": 9011,
  "ĠNosy": 9012,
  "ĠNote": 9013,
  "ĠNoti": 9014,
  "ĠNova": 9015,
  "ĠNuts": 9016,
  "ĠOKAY": 9017,
  "ĠONLY": 9018,
  "ĠOPEN": 9019,
  "ĠORAN": 9020,
  "ĠOUCH": 9021,
  "ĠOaks": 9022,
  "ĠOaky": 9023,
  "ĠOats": 9024,
  "ĠOaty": 9025,
  "ĠObax": 9026,
  "ĠObey": 9027,
  "ĠObie": 9028,
  "ĠOcky": 9029,
  "ĠOcti": 9030,
  "ĠOcto": 9031,
  "ĠOcty": 9032,
  "ĠOggy": 9033,
  "ĠOgre": 9034,
  "ĠOily": 9035,
  "ĠOink": 9036,
  "ĠOkay": 9037,
  "ĠOlaf": 9038,
  "ĠOlds": 9039,
  "ĠOlga": 9040,
  "ĠOlly": 9041,
  "ĠOmar": 9042,
  "ĠOnce": 9043,
  "ĠOnee": 9044,
  "ĠOnes": 9045,
  "ĠOnly": 9046,
  "ĠOoes": 9047,
  "ĠOooh": 9048,
  "ĠOops": 9049,
  "ĠOpal": 9050,
  "ĠOpen": 9051,
  "ĠOreo": 9052,
  "ĠOrla": 9053,
  "ĠOtis": 9054,
  "ĠOtto": 9055,
  "ĠOtty": 9056,
  "ĠOuch": 9057,
  "ĠOurs": 9058,
  "ĠOval": 9059,
  "ĠOven": 9060,
  "ĠOver": 9061,
  "ĠOvey": 9062,
  "ĠOwen": 9063,
  "ĠOwie": 9064,
  "ĠOwls": 9065,
  "ĠOwly": 9066,
  "ĠOxie": 9067,
  "ĠOzzy": 9068,
  "ĠPALE": 9069,
  "ĠPART": 9070,
  "ĠPEEP": 9071,
  "ĠPING": 9072,
  "ĠPLAY": 9073,
  "ĠPOOF": 9074,
  "ĠPOST": 9075,
  "ĠPULL": 9076,
  "ĠPUSH": 9077,
  "ĠPack": 9078,
  "ĠPaco": 9079,
  "ĠPage": 9080,
  "ĠPain": 9081,
  "ĠPale": 9082,
  "ĠPalm": 9083,
  "ĠPals": 9084,
  "ĠPalu": 9085,
  "ĠPans": 9086,
  "ĠPant": 9087,
  "ĠPapa": 9088,
  "ĠPapi": 9089,
  "ĠPapy": 9090,
  "ĠPari": 9091,
  "ĠPark": 9092,
  "ĠParr": 9093,
  "ĠPart": 9094,
  "ĠPasa": 9095,
  "ĠPass": 9096,
  "ĠPath": 9097,
  "ĠPatt": 9098,
  "ĠPaul": 9099,
  "ĠPawl": 9100,
  "ĠPaws": 9101,
  "ĠPeak": 9102,
  "ĠPeal": 9103,
  "ĠPear": 9104,
  "ĠPeas": 9105,
  "ĠPeck": 9106,
  "ĠPedy": 9107,
  "ĠPeej": 9108,
  "ĠPeek": 9109,
  "ĠPeep": 9110,
  "ĠPene": 9111,
  "ĠPeng": 9112,
  "ĠPenn": 9113,
  "ĠPens": 9114,
  "ĠPepe": 9115,
  "ĠPepi": 9116,
  "ĠPepo": 9117,
  "ĠPere": 9118,
  "ĠPeru": 9119,
  "ĠPeta": 9120,
  "ĠPete": 9121,
  "ĠPets": 9122,
  "ĠPhew": 9123,
  "ĠPhil": 9124,
  "ĠPick": 9125,
  "ĠPico": 9126,
  "ĠPies": 9127,
  "ĠPiet": 9128,
  "ĠPige": 9129,
  "ĠPigs": 9130,
  "ĠPike": 9131,
  "ĠPiku": 9132,
  "ĠPile": 9133,
  "ĠPili": 9134,
  "ĠPill": 9135,
  "ĠPilo": 9136,
  "ĠPina": 9137,
  "ĠPine": 9138,
  "ĠPing": 9139,
  "ĠPink": 9140,
  "ĠPins": 9141,
  "ĠPiny": 9142,
  "ĠPipe": 9143,
  "ĠPipi": 9144,
  "ĠPipo": 9145,
  "ĠPiri": 9146,
  "ĠPite": 9147,
  "ĠPito": 9148,
  "ĠPits": 9149,
  "ĠPixy": 9150,
  "ĠPlam": 9151,
  "ĠPlan": 9152,
  "ĠPlay": 9153,
  "ĠPlip": 9154,
  "ĠPlop": 9155,
  "ĠPlot": 9156,
  "ĠPlum": 9157,
  "ĠPlus": 9158,
  "ĠPoPo": 9159,
  "ĠPoco": 9160,
  "ĠPoem": 9161,
  "ĠPogo": 9162,
  "ĠPoke": 9163,
  "ĠPoky": 9164,
  "ĠPola": 9165,
  "ĠPole": 9166,
  "ĠPoli": 9167,
  "ĠPolo": 9168,
  "ĠPond": 9169,
  "ĠPong": 9170,
  "ĠPony": 9171,
  "ĠPoof": 9172,
  "ĠPooh": 9173,
  "ĠPool": 9174,
  "ĠPoop": 9175,
  "ĠPoor": 9176,
  "ĠPopi": 9177,
  "ĠPopo": 9178,
  "ĠPops": 9179,
  "ĠPort": 9180,
  "ĠPose": 9181,
  "ĠPost": 9182,
  "ĠPots": 9183,
  "ĠPoul": 9184,
  "ĠPour": 9185,
  "ĠPray": 9186,
  "ĠPrim": 9187,
  "ĠProp": 9188,
  "ĠPrrr": 9189,
  "ĠPshh": 9190,
  "ĠPsss": 9191,
  "ĠPube": 9192,
  "ĠPuff": 9193,
  "ĠPull": 9194,
  "ĠPump": 9195,
  "ĠPurp": 9196,
  "ĠPurr": 9197,
  "ĠPush": 9198,
  "ĠPuss": 9199,
  "ĠPutu": 9200,
  "ĠPwah": 9201,
  "ĠQuck": 9202,
  "ĠQuip": 9203,
  "ĠQuit": 9204,
  "ĠQuiz": 9205,
  "ĠRAAA": 9206,
  "ĠRACE": 9207,
  "ĠRAIN": 9208,
  "ĠRARE": 9209,
  "ĠREDO": 9210,
  "ĠRING": 9211,
  "ĠROAD": 9212,
  "ĠROAR": 9213,
  "ĠROCK": 9214,
  "ĠRODS": 9215,
  "ĠROOM": 9216,
  "ĠRRRR": 9217,
  "ĠRSVP": 9218,
  "ĠRabi": 9219,
  "ĠRace": 9220,
  "ĠRaco": 9221,
  "ĠRacy": 9222,
  "ĠRael": 9223,
  "ĠRafa": 9224,
  "ĠRaff": 9225,
  "ĠRafi": 9226,
  "ĠRaft": 9227,
  "ĠRags": 9228,
  "ĠRagu": 9229,
  "ĠRail": 9230,
  "ĠRain": 9231,
  "ĠRaja": 9232,
  "ĠRaji": 9233,
  "ĠRaju": 9234,
  "ĠRake": 9235,
  "ĠRaky": 9236,
  "ĠRalf": 9237,
  "ĠRama": 9238,
  "ĠRami": 9239,
  "ĠRana": 9240,
  "ĠRang": 9241,
  "ĠRani": 9242,
  "ĠRara": 9243,
  "ĠRare": 9244,
  "ĠRats": 9245,
  "ĠRatu": 9246,
  "ĠRaul": 9247,
  "ĠRave": 9248,
  "ĠRavi": 9249,
  "ĠRawr": 9250,
  "ĠRaya": 9251,
  "ĠRays": 9252,
  "ĠRazi": 9253,
  "ĠRazy": 9254,
  "ĠRazz": 9255,
  "ĠRead": 9256,
  "ĠReal": 9257,
  "ĠReds": 9258,
  "ĠReed": 9259,
  "ĠReef": 9260,
  "ĠReka": 9261,
  "ĠReki": 9262,
  "ĠRely": 9263,
  "ĠRemi": 9264,
  "ĠRemo": 9265,
  "ĠRemy": 9266,
  "ĠRena": 9267,
  "ĠRene": 9268,
  "ĠReno": 9269,
  "ĠRepo": 9270,
  "ĠRest": 9271,
  "ĠRevi": 9272,
  "ĠRevo": 9273,
  "ĠRexy": 9274,
  "ĠReya": 9275,
  "ĠRhea": 9276,
  "ĠRhys": 9277,
  "ĠRica": 9278,
  "ĠRice": 9279,
  "ĠRich": 9280,
  "ĠRick": 9281,
  "ĠRico": 9282,
  "ĠRide": 9283,
  "ĠRiff": 9284,
  "ĠRiki": 9285,
  "ĠRiko": 9286,
  "ĠRina": 9287,
  "ĠRing": 9288,
  "ĠRini": 9289,
  "ĠRink": 9290,
  "ĠRino": 9291,
  "ĠRipe": 9292,
  "ĠRipp": 9293,
  "ĠRiri": 9294,
  "ĠRisa": 9295,
  "ĠRise": 9296,
  "ĠRita": 9297,
  "ĠRiva": 9298,
  "ĠRiya": 9299,
  "ĠRiyu": 9300,
  "ĠRoad": 9301,
  "ĠRoam": 9302,
  "ĠRoan": 9303,
  "ĠRoar": 9304,
  "ĠRobe": 9305,
  "ĠRobo": 9306,
  "ĠRobs": 9307,
  "ĠRoby": 9308,
  "ĠRock": 9309,
  "ĠRoco": 9310,
  "ĠRodo": 9311,
  "ĠRods": 9312,
  "ĠRojo": 9313,
  "ĠRoki": 9314,
  "ĠRoko": 9315,
  "ĠRolf": 9316,
  "ĠRoli": 9317,
  "ĠRoll": 9318,
  "ĠRolo": 9319,
  "ĠRoly": 9320,
  "ĠRoma": 9321,
  "ĠRomy": 9322,
  "ĠRona": 9323,
  "ĠRoni": 9324,
  "ĠRoof": 9325,
  "ĠRook": 9326,
  "ĠRoom": 9327,
  "ĠRoot": 9328,
  "ĠRope": 9329,
  "ĠRopy": 9330,
  "ĠRoro": 9331,
  "ĠRory": 9332,
  "ĠRosa": 9333,
  "ĠRose": 9334,
  "ĠRoss": 9335,
  "ĠRosy": 9336,
  "ĠRows": 9337,
  "ĠRoxy": 9338,
  "ĠRoza": 9339,
  "ĠRrrr": 9340,
  "ĠRubi": 9341,
  "ĠRuby": 9342,
  "ĠRude": 9343,
  "ĠRudi": 9344,
  "ĠRudy": 9345,
  "ĠRuff": 9346,
  "ĠRule": 9347,
  "ĠRuns": 9348,
  "ĠRunt": 9349,
  "ĠRuru": 9350,
  "ĠRush": 9351,
  "ĠRuss": 9352,
  "ĠRuth": 9353,
  "ĠRyan": 9354,
  "ĠSAID": 9355,
  "ĠSALE": 9356,
  "ĠSHOO": 9357,
  "ĠSHOP": 9358,
  "ĠSHOT": 9359,
  "ĠSICK": 9360,
  "ĠSIGH": 9361,
  "ĠSIGN": 9362,
  "ĠSING": 9363,
  "ĠSLAP": 9364,
  "ĠSNAP": 9365,
  "ĠSNIP": 9366,
  "ĠSOAK": 9367,
  "ĠSOAR": 9368,
  "ĠSONG": 9369,
  "ĠSOON": 9370,
  "ĠSOOO": 9371,
  "ĠSTAY": 9372,
  "ĠSTEP": 9373,
  "ĠSTOP": 9374,
  "ĠSURE": 9375,
  "ĠSURR": 9376,
  "ĠSack": 9377,
  "ĠSafe": 9378,
  "ĠSage": 9379,
  "ĠSaid": 9380,
  "ĠSail": 9381,
  "ĠSale": 9382,
  "ĠSall": 9383,
  "ĠSalt": 9384,
  "ĠSama": 9385,
  "ĠSame": 9386,
  "ĠSami": 9387,
  "ĠSams": 9388,
  "ĠSamy": 9389,
  "ĠSana": 9390,
  "ĠSand": 9391,
  "ĠSani": 9392,
  "ĠSara": 9393,
  "ĠSari": 9394,
  "ĠSaul": 9395,
  "ĠSave": 9396,
  "ĠSavi": 9397,
  "ĠSaya": 9398,
  "ĠSays": 9399,
  "ĠScar": 9400,
  "ĠSeal": 9401,
  "ĠSean": 9402,
  "ĠSeas": 9403,
  "ĠSeat": 9404,
  "ĠSeed": 9405,
  "ĠSeee": 9406,
  "ĠSeek": 9407,
  "ĠSelf": 9408,
  "ĠSell": 9409,
  "ĠSena": 9410,
  "ĠSend": 9411,
  "ĠSera": 9412,
  "ĠSeta": 9413,
  "ĠSeth": 9414,
  "ĠShad": 9415,
  "ĠShan": 9416,
  "ĠShar": 9417,
  "ĠShay": 9418,
  "ĠShen": 9419,
  "ĠShep": 9420,
  "ĠShhh": 9421,
  "ĠShip": 9422,
  "ĠShoe": 9423,
  "ĠShoo": 9424,
  "ĠShop": 9425,
  "ĠShow": 9426,
  "ĠShut": 9427,
  "ĠSick": 9428,
  "ĠSide": 9429,
  "ĠSigh": 9430,
  "ĠSign": 9431,
  "ĠSilk": 9432,
  "ĠSima": 9433,
  "ĠSimi": 9434,
  "ĠSimp": 9435,
  "ĠSina": 9436,
  "ĠSing": 9437,
  "ĠSink": 9438,
  "ĠSire": 9439,
  "ĠSiri": 9440,
  "ĠSisi": 9441,
  "ĠSita": 9442,
  "ĠSite": 9443,
  "ĠSiva": 9444,
  "ĠSize": 9445,
  "ĠSkin": 9446,
  "ĠSkip": 9447,
  "ĠSkye": 9448,
  "ĠSlap": 9449,
  "ĠSlim": 9450,
  "ĠSlip": 9451,
  "ĠSlow": 9452,
  "ĠSmee": 9453,
  "ĠSnap": 9454,
  "ĠSnip": 9455,
  "ĠSnow": 9456,
  "ĠSnug": 9457,
  "ĠSoak": 9458,
  "ĠSoap": 9459,
  "ĠSoar": 9460,
  "ĠSoca": 9461,
  "ĠSock": 9462,
  "ĠSoda": 9463,
  "ĠSofa": 9464,
  "ĠSofi": 9465,
  "ĠSoft": 9466,
  "ĠSoil": 9467,
  "ĠSoji": 9468,
  "ĠSolo": 9469,
  "ĠSome": 9470,
  "ĠSona": 9471,
  "ĠSong": 9472,
  "ĠSoni": 9473,
  "ĠSoon": 9474,
  "ĠSoot": 9475,
  "ĠSoph": 9476,
  "ĠSora": 9477,
  "ĠSore": 9478,
  "ĠSort": 9479,
  "ĠSoso": 9480,
  "ĠSoup": 9481,
  "ĠSour": 9482,
  "ĠSpin": 9483,
  "ĠSpit": 9484,
  "ĠSpot": 9485,
  "ĠSpry": 9486,
  "ĠSpud": 9487,
  "ĠStan": 9488,
  "ĠStar": 9489,
  "ĠStay": 9490,
  "ĠStep": 9491,
  "ĠStew": 9492,
  "ĠStig": 9493,
  "ĠStir": 9494,
  "ĠStop": 9495,
  "ĠSuch": 9496,
  "ĠSuds": 9497,
  "ĠSues": 9498,
  "ĠSuey": 9499,
  "ĠSugi": 9500,
  "ĠSuhe": 9501,
  "ĠSuit": 9502,
  "ĠSuki": 9503,
  "ĠSumi": 9504,
  "ĠSums": 9505,
  "ĠSuna": 9506,
  "ĠSung": 9507,
  "ĠSuni": 9508,
  "ĠSuns": 9509,
  "ĠSupa": 9510,
  "ĠSure": 9511,
  "ĠSurf": 9512,
  "ĠSusa": 9513,
  "ĠSusi": 9514,
  "ĠSusu": 9515,
  "ĠSusy": 9516,
  "ĠSuzi": 9517,
  "ĠSuzy": 9518,
  "ĠSven": 9519,
  "ĠSwan": 9520,
  "ĠSwap": 9521,
  "ĠSwat": 9522,
  "ĠSway": 9523,
  "ĠSwim": 9524,
  "ĠTAKE": 9525,
  "ĠTEAC": 9526,
  "ĠTEAR": 9527,
  "ĠTELL": 9528,
  "ĠTEST": 9529,
  "ĠTHAT": 9530,
  "ĠTHEN": 9531,
  "ĠTHIS": 9532,
  "ĠTHUD": 9533,
  "ĠTOOT": 9534,
  "ĠTOYS": 9535,
  "ĠTREE": 9536,
  "ĠTUNA": 9537,
  "ĠTaco": 9538,
  "ĠTada": 9539,
  "ĠTado": 9540,
  "ĠTail": 9541,
  "ĠTake": 9542,
  "ĠTala": 9543,
  "ĠTalc": 9544,
  "ĠTale": 9545,
  "ĠTalk": 9546,
  "ĠTall": 9547,
  "ĠTalu": 9548,
  "ĠTama": 9549,
  "ĠTame": 9550,
  "ĠTami": 9551,
  "ĠTamy": 9552,
  "ĠTana": 9553,
  "ĠTane": 9554,
  "ĠTank": 9555,
  "ĠTape": 9556,
  "ĠTara": 9557,
  "ĠTari": 9558,
  "ĠTaro": 9559,
  "ĠTart": 9560,
  "ĠTata": 9561,
  "ĠTate": 9562,
  "ĠTavi": 9563,
  "ĠTaxi": 9564,
  "ĠTaxy": 9565,
  "ĠTaya": 9566,
  "ĠTeam": 9567,
  "ĠTear": 9568,
  "ĠTech": 9569,
  "ĠTeco": 9570,
  "ĠTedd": 9571,
  "ĠTedi": 9572,
  "ĠTeds": 9573,
  "ĠTell": 9574,
  "ĠTena": 9575,
  "ĠTeni": 9576,
  "ĠTent": 9577,
  "ĠTeri": 9578,
  "ĠTess": 9579,
  "ĠTest": 9580,
  "ĠThad": 9581,
  "ĠThan": 9582,
  "ĠThat": 9583,
  "ĠThaw": 9584,
  "ĠThay": 9585,
  "ĠThea": 9586,
  "ĠThem": 9587,
  "ĠThen": 9588,
  "ĠTheo": 9589,
  "ĠThey": 9590,
  "ĠThin": 9591,
  "ĠThis": 9592,
  "ĠThom": 9593,
  "ĠThor": 9594,
  "ĠThou": 9595,
  "ĠThud": 9596,
  "ĠThus": 9597,
  "ĠTiam": 9598,
  "ĠTick": 9599,
  "ĠTico": 9600,
  "ĠTide": 9601,
  "ĠTidy": 9602,
  "ĠTied": 9603,
  "ĠTies": 9604,
  "ĠTiff": 9605,
  "ĠTigg": 9606,
  "ĠTigo": 9607,
  "ĠTika": 9608,
  "ĠTiki": 9609,
  "ĠTiko": 9610,
  "ĠTila": 9611,
  "ĠTill": 9612,
  "ĠTilo": 9613,
  "ĠTilt": 9614,
  "ĠTima": 9615,
  "ĠTime": 9616,
  "ĠTimi": 9617,
  "ĠTimo": 9618,
  "ĠTims": 9619,
  "ĠTimy": 9620,
  "ĠTina": 9621,
  "ĠTine": 9622,
  "ĠTing": 9623,
  "ĠTini": 9624,
  "ĠTink": 9625,
  "ĠTino": 9626,
  "ĠTiny": 9627,
  "ĠTips": 9628,
  "ĠTire": 9629,
  "ĠTish": 9630,
  "ĠTiti": 9631,
  "ĠTito": 9632,
  "ĠTiya": 9633,
  "ĠToad": 9634,
  "ĠTobi": 9635,
  "ĠToby": 9636,
  "ĠTock": 9637,
  "ĠTodd": 9638,
  "ĠTodo": 9639,
  "ĠToes": 9640,
  "ĠToey": 9641,
  "ĠTofu": 9642,
  "ĠToke": 9643,
  "ĠTold": 9644,
  "ĠToly": 9645,
  "ĠToma": 9646,
  "ĠTomi": 9647,
  "ĠTomm": 9648,
  "ĠTomo": 9649,
  "ĠToms": 9650,
  "ĠTomy": 9651,
  "ĠToni": 9652,
  "ĠTony": 9653,
  "ĠTook": 9654,
  "ĠTool": 9655,
  "ĠToot": 9656,
  "ĠTopo": 9657,
  "ĠTops": 9658,
  "ĠTori": 9659,
  "ĠTory": 9660,
  "ĠToss": 9661,
  "ĠToto": 9662,
  "ĠTots": 9663,
  "ĠTour": 9664,
  "ĠTown": 9665,
  "ĠToya": 9666,
  "ĠToys": 9667,
  "ĠTrap": 9668,
  "ĠTray": 9669,
  "ĠTree": 9670,
  "ĠTrev": 9671,
  "ĠTrey": 9672,
  "ĠTria": 9673,
  "ĠTrik": 9674,
  "ĠTrip": 9675,
  "ĠTris": 9676,
  "ĠTrix": 9677,
  "ĠTron": 9678,
  "ĠTrot": 9679,
  "ĠTroy": 9680,
  "ĠTruc": 9681,
  "ĠTrue": 9682,
  "ĠTube": 9683,
  "ĠTubs": 9684,
  "ĠTuby": 9685,
  "ĠTuck": 9686,
  "ĠTuff": 9687,
  "ĠTuft": 9688,
  "ĠTula": 9689,
  "ĠTull": 9690,
  "ĠTuna": 9691,
  "ĠTurk": 9692,
  "ĠTurn": 9693,
  "ĠTurt": 9694,
  "ĠTuto": 9695,
  "ĠTutu": 9696,
  "ĠTwee": 9697,
  "ĠTwig": 9698,
  "ĠTwin": 9699,
  "ĠTwit": 9700,
  "ĠTwix": 9701,
  "ĠTwiz": 9702,
  "ĠTyle": 9703,
  "ĠTyra": 9704,
  "ĠUbah": 9705,
  "ĠUgly": 9706,
  "ĠUmbi": 9707,
  "ĠUmby": 9708,
  "ĠUmmm": 9709,
  "ĠUndo": 9710,
  "ĠUnit": 9711,
  "ĠUnny": 9712,
  "ĠUpon": 9713,
  "ĠUrge": 9714,
  "ĠUrsa": 9715,
  "ĠUsed": 9716,
  "ĠVERY": 9717,
  "ĠVIPs": 9718,
  "ĠValu": 9719,
  "ĠVans": 9720,
  "ĠVase": 9721,
  "ĠVega": 9722,
  "ĠVeil": 9723,
  "ĠVera": 9724,
  "ĠVern": 9725,
  "ĠVery": 9726,
  "ĠVest": 9727,
  "ĠVets": 9728,
  "ĠVick": 9729,
  "ĠView": 9730,
  "ĠViki": 9731,
  "ĠVine": 9732,
  "ĠVito": 9733,
  "ĠVivi": 9734,
  "ĠWAAH": 9735,
  "ĠWAIT": 9736,
  "ĠWAKE": 9737,
  "ĠWAND": 9738,
  "ĠWANT": 9739,
  "ĠWAVE": 9740,
  "ĠWENT": 9741,
  "ĠWILL": 9742,
  "ĠWINS": 9743,
  "ĠWISH": 9744,
  "ĠWIll": 9745,
  "ĠWOOF": 9746,
  "ĠWade": 9747,
  "ĠWags": 9748,
  "ĠWait": 9749,
  "ĠWake": 9750,
  "ĠWaky": 9751,
  "ĠWalk": 9752,
  "ĠWall": 9753,
  "ĠWalt": 9754,
  "ĠWand": 9755,
  "ĠWant": 9756,
  "ĠWarm": 9757,
  "ĠWarn": 9758,
  "ĠWars": 9759,
  "ĠWart": 9760,
  "ĠWash": 9761,
  "ĠWasn": 9762,
  "ĠWasp": 9763,
  "ĠWave": 9764,
  "ĠWavy": 9765,
  "ĠWawa": 9766,
  "ĠWeak": 9767,
  "ĠWear": 9768,
  "ĠWebs": 9769,
  "ĠWeee": 9770,
  "ĠWeek": 9771,
  "ĠWeep": 9772,
  "ĠWell": 9773,
  "ĠWent": 9774,
  "ĠWere": 9775,
  "ĠWest": 9776,
  "ĠWhan": 9777,
  "ĠWhat": 9778,
  "ĠWhee": 9779,
  "ĠWhen": 9780,
  "ĠWhew": 9781,
  "ĠWhip": 9782,
  "ĠWhoa": 9783,
  "ĠWhom": 9784,
  "ĠWhoo": 9785,
  "ĠWide": 9786,
  "ĠWife": 9787,
  "ĠWild": 9788,
  "ĠWilf": 9789,
  "ĠWill": 9790,
  "ĠWily": 9791,
  "ĠWind": 9792,
  "ĠWine": 9793,
  "ĠWing": 9794,
  "ĠWink": 9795,
  "ĠWins": 9796,
  "ĠWipe": 9797,
  "ĠWire": 9798,
  "ĠWise": 9799,
  "ĠWish": 9800,
  "ĠWisp": 9801,
  "ĠWith": 9802,
  "ĠWoah": 9803,
  "ĠWoke": 9804,
  "ĠWolf": 9805,
  "ĠWood": 9806,
  "ĠWoof": 9807,
  "ĠWool": 9808,
  "ĠWooo": 9809,
  "ĠWord": 9810,
  "ĠWork": 9811,
  "ĠWorm": 9812,
  "ĠWrap": 9813,
  "ĠWren": 9814,
  "ĠWuff": 9815,
  "ĠYAWN": 9816,
  "ĠYOUR": 9817,
  "ĠYUCK": 9818,
  "ĠYana": 9819,
  "ĠYang": 9820,
  "ĠYani": 9821,
  "ĠYara": 9822,
  "ĠYard": 9823,
  "ĠYari": 9824,
  "ĠYarn": 9825,
  "ĠYash": 9826,
  "ĠYawn": 9827,
  "ĠYaya": 9828,
  "ĠYayi": 9829,
  "ĠYeah": 9830,
  "ĠYear": 9831,
  "ĠYeay": 9832,
  "ĠYell": 9833,
  "ĠYema": 9834,
  "ĠYeti": 9835,
  "ĠYing": 9836,
  "ĠYoYo": 9837,
  "ĠYoga": 9838,
  "ĠYogi": 9839,
  "ĠYoko": 9840,
  "ĠYoky": 9841,
  "ĠYola": 9842,
  "ĠYork": 9843,
  "ĠYosi": 9844,
  "ĠYour": 9845,
  "ĠYoyo": 9846,
  "ĠYuck": 9847,
  "ĠYuki": 9848,
  "ĠYuko": 9849,
  "ĠYuli": 9850,
  "ĠYumi": 9851,
  "ĠYumm": 9852,
  "ĠZERO": 9853,
  "ĠZOOM": 9854,
  "ĠZach": 9855,
  "ĠZack": 9856,
  "ĠZali": 9857,
  "ĠZane": 9858,
  "ĠZang": 9859,
  "ĠZara": 9860,
  "ĠZaya": 9861,
  "ĠZazz": 9862,
  "ĠZebi": 9863,
  "ĠZees": 9864,
  "ĠZeke": 9865,
  "ĠZena": 9866,
  "ĠZeno": 9867,
  "ĠZero": 9868,
  "ĠZeta": 9869,
  "ĠZeus": 9870,
  "ĠZico": 9871,
  "ĠZina": 9872,
  "ĠZing": 9873,
  "ĠZips": 9874,
  "ĠZiya": 9875,
  "ĠZizi": 9876,
  "ĠZobo": 9877,
  "ĠZoey": 9878,
  "ĠZola": 9879,
  "ĠZone": 9880,
  "ĠZoob": 9881,
  "ĠZoom": 9882,
  "ĠZooz": 9883,
  "ĠZork": 9884,
  "ĠZorp": 9885,
  "ĠZozo": 9886,
  "ĠZulu": 9887,
  "ĠZuzu": 9888,
  "ĠZzzz": 9889,
  "Ġ\\âĢľ": 9890,
  "Ġaaah": 9891,
  "Ġaahs": 9892,
  "Ġaand": 9893,
  "Ġabby": 9894,
  "Ġabcs": 9895,
  "Ġabel": 9896,
  "Ġabig": 9897,
  "Ġabil": 9898,
  "Ġable": 9899,
  "Ġabra": 9900,
  "Ġabut": 9901,
  "Ġacai": 9902,
  "Ġaced": 9903,
  "Ġache": 9904,
  "Ġachy": 9905,
  "Ġacid": 9906,
  "Ġacly": 9907,
  "Ġacre": 9908,
  "Ġacts": 9909,
  "Ġadds": 9910,
  "Ġaero": 9911,
  "Ġafar": 9912,
  "Ġaged": 9913,
  "Ġages": 9914,
  "Ġagua": 9915,
  "Ġahoy": 9916,
  "Ġaide": 9917,
  "Ġaids": 9918,
  "Ġails": 9919,
  "Ġaims": 9920,
  "Ġairy": 9921,
  "Ġajar": 9922,
  "Ġalas": 9923,
  "Ġalle": 9924,
  "Ġally": 9925,
  "Ġaloe": 9926,
  "Ġalot": 9927,
  "Ġalso": 9928,
  "Ġamde": 9929,
  "Ġamen": 9930,
  "Ġamid": 9931,
  "Ġamie": 9932,
  "Ġamis": 9933,
  "Ġammo": 9934,
  "Ġamor": 9935,
  "Ġamps": 9936,
  "Ġanda": 9937,
  "Ġandb": 9938,
  "Ġandi": 9939,
  "Ġanew": 9940,
  "Ġanna": 9941,
  "Ġannd": 9942,
  "Ġanry": 9943,
  "Ġanti": 9944,
  "Ġants": 9945,
  "Ġapon": 9946,
  "Ġapps": 9947,
  "Ġaqua": 9948,
  "Ġaqui": 9949,
  "Ġarch": 9950,
  "Ġarcs": 9951,
  "Ġarea": 9952,
  "Ġaren": 9953,
  "Ġarid": 9954,
  "Ġarms": 9955,
  "Ġarmy": 9956,
  "Ġarrr": 9957,
  "Ġarts": 9958,
  "Ġashy": 9959,
  "Ġasks": 9960,
  "Ġatom": 9961,
  "Ġatop": 9962,
  "Ġaunt": 9963,
  "Ġaura": 9964,
  "Ġauto": 9965,
  "Ġaven": 9966,
  "Ġavid": 9967,
  "Ġaway": 9968,
  "Ġawed": 9969,
  "Ġawoo": 9970,
  "Ġawry": 9971,
  "Ġaxes": 9972,
  "Ġaxle": 9973,
  "Ġazul": 9974,
  "Ġbaah": 9975,
  "Ġbaas": 9976,
  "Ġbaba": 9977,
  "Ġbabe": 9978,
  "Ġbaby": 9979,
  "Ġback": 9980,
  "Ġbade": 9981,
  "Ġbags": 9982,
  "Ġbail": 9983,
  "Ġbait": 9984,
  "Ġbake": 9985,
  "Ġbala": 9986,
  "Ġbald": 9987,
  "Ġbale": 9988,
  "Ġball": 9989,
  "Ġbalm": 9990,
  "Ġbams": 9991,
  "Ġband": 9992,
  "Ġbang": 9993,
  "Ġbank": 9994,
  "Ġbard": 9995,
  "Ġbare": 9996,
  "Ġbark": 9997,
  "Ġbarn": 9998,
  "<|endoftext|>": 9999
}